<pad>	0
<unk>	0
<s>	0
</s>	0
()	0
-:	0
▁t	-0
▁a	-1
in	-2
er	-3
on	-4
he	-5
▁s	-6
or	-7
it	-8
อง	-9
ี่	-10
าร	-11
▁w	-12
re	-13
▁c	-14
at	-15
่า	-16
ou	-17
▁f	-18
ที่	-19
nd	-20
ัน	-21
▁b	-22
▁the	-23
▁p	-24
▁m	-25
en	-26
้า	-27
การ	-28
ํา	-29
es	-30
is	-31
ing	-32
ับ	-33
le	-34
▁d	-35
าก	-36
▁o	-37
an	-38
าม	-39
ด้	-40
ar	-41
ed	-42
ละ	-43
al	-44
ic	-45
ro	-46
▁to	-47
as	-48
▁and	-49
าย	-50
▁I	-51
ระ	-52
▁in	-53
ของ	-54
ion	-55
▁S	-56
ื่	-57
▁of	-58
▁th	-59
ได้	-60
▁เ	-61
▁T	-62
ใน	-63
▁h	-64
อย	-65
▁C	-66
และ	-67
▁l	-68
มี	-69
ct	-70
้น	-71
▁y	-72
่ง	-73
ือ	-74
▁e	-75
คว	-76
หน	-77
▁:	-78
ัง	-79
ให	-80
ll	-81
ม่	-82
▁you	-83
ีย	-84
เป	-85
om	-86
้อ	-87
ent	-88
าน	-89
▁it	-90
ความ	-91
us	-92
็น	-93
▁g	-94
คุ	-95
▁n	-96
ly	-97
จาก	-98
้ง	-99
ot	-100
ig	-101
▁ส	-102
▁A	-103
ไม่	-104
et	-105
▁for	-106
▁re	-107
ve	-108
คุณ	-109
▁P	-110
ิน	-111
ol	-112
่าง	-113
รับ	-114
ay	-115
จะ	-116
ith	-117
ac	-118
▁M	-119
ให้	-120
มา	-121
ตั	-122
วย	-123
ต่	-124
▁be	-125
ฉัน	-126
คร	-127
่น	-128
ดี	-129
ut	-130
▁with	-131
ow	-132
เล	-133
▁(	-134
เป็น	-135
▁on	-136
อก	-137
ใช	-138
อน	-139
ad	-140
ี้	-141
ประ	-142
id	-143
▁is	-144
หล	-145
ผล	-146
ว่า	-147
▁W	-148
if	-149
เร	-150
ver	-151
oo	-152
กับ	-153
ค่	-154
igh	-155
▁B	-156
▁แ	-157
ัก	-158
th	-159
st	-160
▁st	-161
าง	-162
นี้	-163
เพ	-164
ิต	-165
ab	-166
่ม	-167
im	-168
ter	-169
ur	-170
หม	-171
ิด	-172
เก	-173
อบ	-174
ทํา	-175
ื่อ	-176
▁D	-177
มัน	-178
il	-179
rom	-180
ค่ะ	-181
ร์	-182
pe	-183
้อง	-184
▁F	-185
าด	-186
am	-187
เข	-188
▁L	-189
▁The	-190
ight	-191
ไป	-192
▁H	-193
เท	-194
em	-195
ch	-196
รา	-197
ation	-198
▁from	-199
ke	-200
กัน	-201
ภา	-202
▁pro	-203
▁that	-204
สด	-205
ir	-206
อา	-207
่ว	-208
el	-209
▁N	-210
▁an	-211
▁และ	-212
กล	-213
▁wh	-214
▁O	-215
ตัว	-216
ื่อง	-217
ด้วย	-218
อย่าง	-219
บบ	-220
เด	-221
ริ	-222
ce	-223
เว	-224
ผลิต	-225
้ว	-226
ตร	-227
น้	-228
▁G	-229
ื้อ	-230
หร	-231
ap	-232
เส	-233
มาก	-234
ติ	-235
se	-236
กร	-237
้าน	-238
ใช้	-239
อร์	-240
คะ	-241
uct	-242
▁your	-243
▁E	-244
ู้	-245
▁u	-246
ั้น	-247
and	-248
▁โ	-249
ัด	-250
ุด	-251
qu	-252
สํา	-253
able	-254
ort	-255
ere	-256
▁or	-257
▁R	-258
ure	-259
um	-260
ld	-261
หรับ	-262
ill	-263
ั้ง	-264
เห	-265
ook	-266
▁at	-267
..	-268
out	-269
าว	-270
ge	-271
▁Th	-272
ity	-273
ust	-274
▁this	-275
ภาพ	-276
▁con	-277
ant	-278
▁com	-279
▁as	-280
iz	-281
ารถ	-282
ul	-283
ขน	-284
หน้า	-285
ึ่ง	-286
ไซ	-287
▁was	-288
▁se	-289
กระ	-290
ต้อง	-291
▁น	-292
สดง	-293
ave	-294
ช่	-295
▁r	-296
เม	-297
ี่ย	-298
ู่	-299
แสดง	-300
▁U	-301
olor	-302
pp	-303
ดู	-304
▁ร	-305
ขึ	-306
▁In	-307
ามารถ	-308
▁x	-309
▁ฉัน	-310
แล	-311
▁ex	-312
ขึ้น	-313
duct	-314
ึง	-315
▁not	-316
▁sh	-317
ก็	-318
้าง	-319
เค	-320
▁are	-321
สิ	-322
▁สี	-323
▁พ	-324
่าย	-325
ภั	-326
แบบ	-327
est	-328
▁we	-329
สําหรับ	-330
ers	-331
น้ํา	-332
▁us	-333
ื่น	-334
นะ	-335
ri	-336
ess	-337
สี	-338
วก	-339
ค้า	-340
ain	-341
ดย	-342
ould	-343
เน	-344
ate	-345
ore	-346
ค่า	-347
▁he	-348
หรือ	-349
ต์	-350
้อม	-351
ทุ	-352
ack	-353
▁ne	-354
ใจ	-355
ตั้ง	-356
our	-357
ออก	-358
็บ	-359
▁can	-360
▁It	-361
ect	-362
ach	-363
พิ	-364
รง	-365
บน	-366
▁li	-367
สม	-368
op	-369
ปี	-370
ast	-371
ลา	-372
ice	-373
ไร	-374
มีความ	-375
ต่อ	-376
แต	-377
เต	-378
▁have	-379
ist	-380
เช	-381
ลง	-382
ณฑ	-383
แต่	-384
วัน	-385
▁แต่	-386
pl	-387
▁ซ	-388
งาน	-389
ณฑ์	-390
็ก	-391
ใส	-392
วั	-393
▁so	-394
ินค้า	-395
ต่าง	-396
สามารถ	-397
ขนาด	-398
▁do	-399
fer	-400
▁de	-401
ภัณฑ์	-402
▁qu	-403
่าน	-404
ood	-405
ูก	-406
คน	-407
อยู่	-408
ine	-409
ial	-410
ผลิตภัณฑ์	-411
สน	-412
ือน	-413
ช่วย	-414
ครื่อง	-415
▁per	-416
ส์	-417
▁อ	-418
เบ	-419
▁ch	-420
ผู้	-421
▁"	-422
▁product	-423
▁but	-424
▁dis	-425
gh	-426
▁by	-427
ทาง	-428
ment	-429
art	-430
ite	-431
▁spe	-432
อด	-433
ive	-434
un	-435
ตุ	-436
▁v	-437
วม	-438
ทั้ง	-439
ิ่ม	-440
ize	-441
act	-442
อาจ	-443
▁Y	-444
▁all	-445
ard	-446
▁me	-447
▁ข	-448
แล้ว	-449
ใช้ง	-450
ถึง	-451
ตาม	-452
สั	-453
ใช้งาน	-454
od	-455
▁wor	-456
▁tr	-457
very	-458
▁ไม่	-459
ิว	-460
▁le	-461
รร	-462
▁pl	-463
▁ที่	-464
▁mon	-465
ater	-466
อะ	-467
▁ใน	-468
▁-	-469
ick	-470
▁มี	-471
▁su	-472
หนัง	-473
▁like	-474
ough	-475
ุ่น	-476
ome	-477
ียง	-478
av	-479
▁ค	-480
จอ	-481
ck	-482
จากการ	-483
กว่า	-484
▁ๆ	-485
สินค้า	-486
เลย	-487
หมาย	-488
่วน	-489
เย	-490
▁al	-491
บาย	-492
เอ	-493
คา	-494
ear	-495
ide	-496
▁my	-497
▁will	-498
สุด	-499
ade	-500
reat	-501
เขา	-502
ียน	-503
▁sl	-504
าร์	-505
nt	-506
สู	-507
ึก	-508
ีก	-509
ร้อม	-510
▁one	-511
นั้น	-512
จํา	-513
▁j	-514
ใส่	-515
▁dif	-516
▁K	-517
ทุก	-518
เครื่อง	-519
os	-520
all	-521
ซื้อ	-522
ณ์	-523
▁St	-524
▁pr	-525
ak	-526
ase	-527
ag	-528
่อน	-529
res	-530
วิ	-531
สิ่ง	-532
วน	-533
▁ab	-534
ong	-535
▁color	-536
ยัง	-537
erm	-538
เหตุ	-539
ผ้า	-540
ลัง	-541
หว	-542
▁differ	-543
one	-544
▁k	-545
ip	-546
ific	-547
แตก	-548
▁may	-549
มั	-550
):	-551
hen	-552
▁spec	-553
ound	-554
ies	-555
▁This	-556
▁ล	-557
ie	-558
ower	-559
▁ช	-560
▁up	-561
โดย	-562
้อย	-563
ที	-564
ber	-565
▁J	-566
oth	-567
เพื่อ	-568
▁out	-569
ทน	-570
อล	-571
สะ	-572
ื้น	-573
ต้องการ	-574
ตอน	-575
ไฟ	-576
ions	-577
ุ่ม	-578
▁มัน	-579
▁co	-580
หา	-581
ime	-582
▁has	-583
ry	-584
are	-585
▁item	-586
▁ป	-587
ign	-588
แต่ละ	-589
แตกต่าง	-590
ในการ	-591
▁mo	-592
age	-593
เทศ	-594
ther	-595
ัญ	-596
▁ad	-597
กํา	-598
ราคา	-599
หน้าจอ	-600
▁any	-601
▁en	-602
ียว	-603
▁each	-604
cent	-605
ทําให้	-606
▁book	-607
เพิ่ม	-608
ของฉัน	-609
▁different	-610
ble	-611
ด้าน	-612
ep	-613
ff	-614
ally	-615
so	-616
ich	-617
▁การ	-618
ผลิตภัณฑ์ที่	-619
เว็บ	-620
▁would	-621
ake	-622
พวก	-623
หลัง	-624
ไซต์	-625
▁ได้	-626
อะไร	-627
สูง	-628
ER	-629
der	-630
โล	-631
อื่น	-632
iv	-633
แตกต่างกัน	-634
เง	-635
ality	-636
▁more	-637
ue	-638
เว็บไซต์	-639
ประเทศ	-640
ที่จะ	-641
itor	-642
ส่ง	-643
int	-644
ค่าการ	-645
เศ	-646
เจ	-647
เข้า	-648
ส่วน	-649
ification	-650
play	-651
▁V	-652
▁they	-653
▁ม	-654
แสดงผล	-655
กิ	-656
ผิว	-657
▁Size	-658
เหล	-659
ud	-660
ตล	-661
หนังส	-662
ยาย	-663
per	-664
มาะ	-665
หาร	-666
ightly	-667
เรา	-668
้ม	-669
คุณภาพ	-670
ind	-671
หมายเหตุ	-672
น์	-673
ile	-674
ครั้ง	-675
ของแต่ละ	-676
เมื่อ	-677
▁comp	-678
▁lo	-679
ร้อย	-680
ไว	-681
ของคุณ	-682
คล	-683
ของผลิตภัณฑ์ที่	-684
ค่าการแสดงผล	-685
▁display	-686
▁slightly	-687
▁good	-688
▁Color	-689
ด์	-690
▁term	-691
▁เป	-692
บนเว็บไซต์	-693
หนังสือ	-694
ของแต่ละหน้าจอ	-695
ดับ	-696
▁monitor	-697
ง่าย	-698
อาจมีความ	-699
ธิ	-700
นํา	-701
จากการตั้ง	-702
แสดงบนเว็บไซต์	-703
หลาย	-704
cc	-705
เรื่อง	-706
▁use	-707
ens	-708
▁work	-709
ถูก	-710
แน	-711
ียบ	-712
▁เพ	-713
ชา	-714
▁fe	-715
บั	-716
เซ	-717
หนึ่ง	-718
▁specification	-719
▁there	-720
เวลา	-721
กา	-722
พร้อม	-723
ution	-724
▁te	-725
ทร	-726
▁what	-727
▁des	-728
ยาว	-729
▁look	-730
▁โอ	-731
▁quality	-732
▁terms	-733
uy	-734
ชอบ	-735
ได้รับ	-736
ven	-737
อีก	-738
▁cont	-739
บริ	-740
เงิน	-741
ัว	-742
ธอ	-743
▁get	-744
▁go	-745
▁time	-746
▁inc	-747
pt	-748
รม	-749
▁man	-750
ra	-751
ที่คุณ	-752
port	-753
▁ด	-754
▁Wh	-755
...	-756
▁cl	-757
ใหญ	-758
ous	-759
แบ	-760
ame	-761
ัฐ	-762
ail	-763
▁Pro	-764
con	-765
▁pre	-766
▁res	-767
สอง	-768
บาง	-769
รู้	-770
▁i	-771
สบาย	-772
ace	-773
▁which	-774
ire	-775
อยาก	-776
ปร	-777
มาณ	-778
ักษ	-779
ated	-780
▁just	-781
▁no	-782
▁about	-783
▁than	-784
ั่น	-785
ปล	-786
กิจ	-787
▁when	-788
▁Ch	-789
นะคะ	-790
ใหญ่	-791
นา	-792
าะ	-793
อม	-794
▁คุณ	-795
ฐาน	-796
ั่ว	-797
▁some	-798
ร้อยละ	-799
ิง	-800
▁percent	-801
ติด	-802
ance	-803
ิก	-804
เท้า	-805
▁ขนาด	-806
้อน	-807
จัด	-808
หมือน	-809
มพ	-810
te	-811
▁โอเค	-812
ult	-813
ft	-814
เดียว	-815
▁โดย	-816
ไม่ได้	-817
▁US	-818
ณะ	-819
รอง	-820
ี่ยม	-821
▁im	-822
กําลัง	-823
แรง	-824
ม้	-825
▁other	-826
▁เป็น	-827
้ย	-828
▁if	-829
ass	-830
ูป	-831
ือก	-832
ric	-833
▁Bl	-834
▁eas	-835
ไม่มี	-836
คือ	-837
ัพ	-838
▁want	-839
ัส	-840
▁Sh	-841
▁need	-842
ระบบ	-843
ans	-844
สดุ	-845
▁read	-846
วด	-847
▁ความ	-848
▁been	-849
ทํางาน	-850
ia	-851
▁great	-852
อุ	-853
ิ่ง	-854
เร็	-855
ูล	-856
เหมือน	-857
▁ห	-858
▁year	-859
▁very	-860
สร	-861
▁Ca	-862
ไซส์	-863
ี่ยว	-864
ที่มี	-865
ree	-866
ผลิตจาก	-867
▁po	-868
ink	-869
วัสดุ	-870
▁He	-871
ที่ดี	-872
หมด	-873
fter	-874
แร	-875
▁well	-876
▁them	-877
▁price	-878
▁sm	-879
ish	-880
้าย	-881
แก	-882
▁ar	-883
fort	-884
สาร	-885
lect	-886
▁ให้	-887
og	-888
สง	-889
old	-890
ปรับ	-891
ถ้า	-892
▁design	-893
ไหน	-894
ทาน	-895
ub	-896
อาหาร	-897
ริง	-898
▁Caution	-899
▁We	-900
หย	-901
มือ	-902
ได้ดี	-903
เล็ก	-904
นด์	-905
▁cm	-906
รถ	-907
แห	-908
itt	-909
าส	-910
ย์	-911
คิด	-912
▁only	-913
▁จ	-914
AN	-915
เฉ	-916
ิล	-917
ton	-918
vel	-919
าล	-920
คม	-921
เตอร์	-922
่วง	-923
นวน	-924
เธอ	-925
เหมาะ	-926
พื้น	-927
▁high	-928
ไว้	-929
ก่อน	-930
พวกเขา	-931
ทธิ	-932
▁car	-933
การใช้งาน	-934
ON	-935
ลด	-936
orm	-937
▁ซม	-938
irst	-939
aterial	-940
ence	-941
▁un	-942
แรก	-943
สาย	-944
กรรม	-945
▁/	-946
we	-947
▁dur	-948
จุ	-949
ราะ	-950
่อง	-951
▁sa	-952
แข	-953
ature	-954
kin	-955
ีน	-956
ใหม่	-957
เล่ม	-958
▁its	-959
ัย	-960
to	-961
▁off	-962
▁หรือ	-963
เปล	-964
าศ	-965
โน	-966
▁ด้วย	-967
ข้อ	-968
น้อย	-969
มั้ย	-970
▁how	-971
▁ช่วย	-972
row	-973
เลือก	-974
▁br	-975
จริง	-976
หนัก	-977
เกี่ยว	-978
oy	-979
▁order	-980
▁sc	-981
eng	-982
จํานวน	-983
ืน	-984
ระดับ	-985
ุน	-986
ั่ง	-987
▁เม	-988
เกิด	-989
▁were	-990
▁Com	-991
ที่น	-992
▁app	-993
ition	-994
▁ซึ่ง	-995
end	-996
สร้าง	-997
ท์	-998
อั	-999
ress	-1000
▁had	-1001
▁fl	-1002
ount	-1003
ผ่าน	-1004
▁Power	-1005
avor	-1006
lp	-1007
AR	-1008
ดํา	-1009
ื่อน	-1010
ุง	-1011
คํา	-1012
▁tw	-1013
เร็ว	-1014
ดา	-1015
hing	-1016
▁products	-1017
ที่สุด	-1018
▁every	-1019
ah	-1020
่อย	-1021
ขยาย	-1022
own	-1023
ุม	-1024
▁help	-1025
ค์	-1026
▁ag	-1027
▁cle	-1028
▁also	-1029
ได้อย่าง	-1030
use	-1031
รี	-1032
▁over	-1033
ruct	-1034
▁บ	-1035
วมใส่	-1036
her	-1037
ค่าการแสดงผลสี	-1038
▁did	-1039
▁ก	-1040
▁first	-1041
ings	-1042
อ่าน	-1043
yst	-1044
▁part	-1045
มาตร	-1046
IN	-1047
▁sp	-1048
ays	-1049
▁สํา	-1050
▁Ok	-1051
uch	-1052
ark	-1053
atter	-1054
ชน	-1055
▁char	-1056
โด	-1057
▁ke	-1058
ชี	-1059
▁จาก	-1060
▁ท	-1061
มาส	-1062
ets	-1063
พอ	-1064
ลาย	-1065
▁ปี	-1066
ราย	-1067
ใบ	-1068
ont	-1069
ชาติ	-1070
▁จะ	-1071
ary	-1072
app	-1073
▁&	-1074
▁these	-1075
ือง	-1076
▁X	-1077
้าม	-1078
สา	-1079
โต	-1080
โม	-1081
▁favor	-1082
ซึ่ง	-1083
รษ	-1084
ose	-1085
▁too	-1086
▁made	-1087
yle	-1088
ภาย	-1089
อัน	-1090
ิ้ว	-1091
ystem	-1092
เห็น	-1093
::	-1094
มิ	-1095
▁make	-1096
ากาศ	-1097
▁bec	-1098
EN	-1099
ory	-1100
กว	-1101
ุก	-1102
็ง	-1103
ควร	-1104
▁does	-1105
ช่อง	-1106
ual	-1107
ength	-1108
ประมาณ	-1109
ายุ	-1110
▁For	-1111
เขียน	-1112
รูป	-1113
เศษ	-1114
นัก	-1115
▁lif	-1116
ใช่	-1117
▁pe	-1118
▁am	-1119
up	-1120
รวม	-1121
เสียง	-1122
▁after	-1123
้ํา	-1124
เนื้อ	-1125
▁With	-1126
xt	-1127
นะนํา	-1128
▁rec	-1129
▁bet	-1130
▁comfort	-1131
โย	-1132
ปัญ	-1133
ปก	-1134
▁Not	-1135
▁acc	-1136
ร้าน	-1137
เกี่ยวกับ	-1138
็ม	-1139
เพียง	-1140
▁You	-1141
เยี่ยม	-1142
▁much	-1143
▁inter	-1144
เก็บ	-1145
ชื่น	-1146
less	-1147
่าว	-1148
▁$	-1149
▁perf	-1150
▁สําหรับ	-1151
▁kn	-1152
▁Product	-1153
ียด	-1154
▁che	-1155
ลาส	-1156
▁Re	-1157
ธี	-1158
▁long	-1159
vie	-1160
▁favorite	-1161
รนด์	-1162
แพ	-1163
ious	-1164
ang	-1165
สั่ง	-1166
มั้ยคะ	-1167
ert	-1168
ข้าง	-1169
▁gr	-1170
▁easy	-1171
ิ้น	-1172
ิม	-1173
▁สามารถ	-1174
ection	-1175
▁ro	-1176
▁two	-1177
ased	-1178
วง	-1179
ติก	-1180
hone	-1181
▁new	-1182
ating	-1183
หลังจาก	-1184
ตา	-1185
รษฐ	-1186
▁No	-1187
คง	-1188
az	-1189
สุ	-1190
▁หมายเหตุ	-1191
่ะ	-1192
ทนทาน	-1193
ลูก	-1194
น้ําหนัก	-1195
รรม	-1196
ype	-1197
ไซน์	-1198
ําร	-1199
air	-1200
ไหม	-1201
▁even	-1202
erv	-1203
ull	-1204
pect	-1205
ดีไซน์	-1206
▁bl	-1207
▁wr	-1208
ank	-1209
hes	-1210
ผ่น	-1211
เล่น	-1212
แนะนํา	-1213
เพราะ	-1214
ที่ย	-1215
ause	-1216
ทั้งหมด	-1217
▁min	-1218
▁light	-1219
▁skin	-1220
▁So	-1221
บัติ	-1222
▁ประ	-1223
พิเศษ	-1224
ี่ยน	-1225
ไตร	-1226
ธรรม	-1227
ord	-1228
▁their	-1229
led	-1230
หนังสือเล่ม	-1231
struct	-1232
กลาง	-1233
แบรนด์	-1234
▁many	-1235
โร	-1236
▁เห	-1237
ขยายตัว	-1238
มพ์	-1239
ฟัง	-1240
มาพร้อม	-1241
AL	-1242
▁back	-1243
เอก	-1244
ป้อง	-1245
รษฐกิจ	-1246
เชื่อ	-1247
rant	-1248
ิส	-1249
ช่วง	-1250
▁Do	-1251
ical	-1252
ฟ้า	-1253
▁into	-1254
▁who	-1255
ไตรมาส	-1256
้อมูล	-1257
▁supp	-1258
แฟ	-1259
เสื้อ	-1260
ออกแบบ	-1261
▁she	-1262
▁used	-1263
ร้อน	-1264
มาตรฐาน	-1265
ที่ฉัน	-1266
lud	-1267
อร	-1268
ily	-1269
ug	-1270
ภาค	-1271
conom	-1272
▁Am	-1273
les	-1274
อากาศ	-1275
ทย	-1276
หวัง	-1277
เป๋	-1278
▁เพื่อ	-1279
รอบ	-1280
buy	-1281
อาด	-1282
▁add	-1283
ตัด	-1284
ประกัน	-1285
▁hand	-1286
hed	-1287
vers	-1288
ขณะ	-1289
ดวก	-1290
สิทธิ	-1291
▁เน	-1292
▁our	-1293
ลอง	-1294
อายุ	-1295
เกิน	-1296
ning	-1297
▁เข	-1298
หัว	-1299
ติม	-1300
umber	-1301
ought	-1302
ว่าจะ	-1303
กว้าง	-1304
ents	-1305
กระเป๋	-1306
▁ขอ	-1307
nder	-1308
แท	-1309
▁And	-1310
เคล	-1311
▁act	-1312
ible	-1313
▁really	-1314
atch	-1315
▁Made	-1316
▁fit	-1317
สะอาด	-1318
thing	-1319
oint	-1320
วิธี	-1321
▁ok	-1322
ซ์	-1323
▁gl	-1324
ations	-1325
▁then	-1326
สาม	-1327
▁water	-1328
ES	-1329
แต่ง	-1330
ผิด	-1331
หว่าง	-1332
บอก	-1333
ปัญหา	-1334
เภ	-1335
แป	-1336
▁fo	-1337
ชั่น	-1338
ise	-1339
ไล	-1340
astic	-1341
กรณ์	-1342
▁ย	-1343
สวย	-1344
สถ	-1345
น่า	-1346
นาน	-1347
▁el	-1348
ริม	-1349
พล	-1350
เช่น	-1351
ทรง	-1352
เด็ก	-1353
▁โอเคค่ะ	-1354
เปลี่ยน	-1355
่อ	-1356
ever	-1357
เนื่อง	-1358
anc	-1359
▁dec	-1360
OR	-1361
▁set	-1362
ting	-1363
ทําความ	-1364
ush	-1365
▁pur	-1366
▁พร้อม	-1367
เดิน	-1368
▁ค่ะ	-1369
▁ตัว	-1370
arrant	-1371
ied	-1372
▁system	-1373
แค่	-1374
▁ขอบ	-1375
ปกรณ์	-1376
▁don	-1377
▁day	-1378
▁ผู้	-1379
รักษ	-1380
โทร	-1381
ข้อมูล	-1382
▁แล	-1383
ไตล	-1384
arranty	-1385
▁now	-1386
พิมพ์	-1387
อยู่ใน	-1388
เอง	-1389
▁ผลิตจาก	-1390
▁inf	-1391
ne	-1392
▁because	-1393
ful	-1394
ืด	-1395
ไตล์	-1396
พาะ	-1397
ors	-1398
▁Powerbuy	-1399
ax	-1400
ซี	-1401
▁รุ่น	-1402
ตรา	-1403
บุ	-1404
▁Al	-1405
!!	-1406
กล่าว	-1407
ตก	-1408
omet	-1409
ิป	-1410
ility	-1411
▁best	-1412
่วม	-1413
ซัก	-1414
▁see	-1415
ple	-1416
เสีย	-1417
เภท	-1418
▁If	-1419
เฉพาะ	-1420
ดัง	-1421
otton	-1422
day	-1423
reen	-1424
เศรษฐกิจ	-1425
ต้น	-1426
ูมิ	-1427
ระหว่าง	-1428
รองเท้า	-1429
IT	-1430
ee	-1431
สึก	-1432
▁size	-1433
แข็ง	-1434
▁My	-1435
▁แล้ว	-1436
เปิด	-1437
▁Ad	-1438
ภัย	-1439
▁exp	-1440
หลาก	-1441
▁นิ้ว	-1442
เย็น	-1443
สวมใส่	-1444
▁buy	-1445
▁Black	-1446
ห์	-1447
ople	-1448
็ค	-1449
enc	-1450
ขาว	-1451
▁fr	-1452
ต้	-1453
ian	-1454
ince	-1455
ยน	-1456
▁How	-1457
าที	-1458
เริ่ม	-1459
other	-1460
ประก	-1461
▁rem	-1462
▁Yes	-1463
โลก	-1464
เติม	-1465
่าร	-1466
▁thr	-1467
คุ้ม	-1468
สไตล์	-1469
AS	-1470
ิ่น	-1471
รับประกัน	-1472
ular	-1473
่านี้	-1474
▁As	-1475
ves	-1476
การณ์	-1477
▁col	-1478
โอ	-1479
▁str	-1480
▁Pl	-1481
AT	-1482
lease	-1483
▁should	-1484
ener	-1485
▁prov	-1486
โคร	-1487
ได้รับการ	-1488
▁last	-1489
ange	-1490
▁power	-1491
▁เมื่อ	-1492
เดือน	-1493
ตร์	-1494
บ้าน	-1495
จ่าย	-1496
▁เร	-1497
บัน	-1498
▁สินค้า	-1499
ูด	-1500
▁clean	-1501
▁นี่	-1502
▁most	-1503
▁while	-1504
▁What	-1505
atures	-1506
▁อยาก	-1507
ชาย	-1508
ชื่นชอบ	-1509
▁durable	-1510
▁ของ	-1511
ib	-1512
กับการ	-1513
ตอนนี้	-1514
▁mak	-1515
หนังสือเล่มนี้	-1516
คืน	-1517
▁ใช้	-1518
ลาสติก	-1519
รัฐ	-1520
▁There	-1521
กระเป๋า	-1522
แด	-1523
ium	-1524
ชั้น	-1525
abric	-1526
fore	-1527
วิต	-1528
▁เท	-1529
ved	-1530
นิ	-1531
ars	-1532
▁could	-1533
กลับ	-1534
▁includ	-1535
▁|	-1536
▁years	-1537
get	-1538
สะดวก	-1539
ems	-1540
ทั่ว	-1541
lee	-1542
รักษา	-1543
▁right	-1544
arter	-1545
olog	-1546
▁mod	-1547
▁material	-1548
▁people	-1549
ชุด	-1550
▁incre	-1551
เบา	-1552
ตรง	-1553
เคย	-1554
ooth	-1555
▁เส	-1556
ob	-1557
สําค	-1558
วาง	-1559
▁through	-1560
▁Cl	-1561
▁somet	-1562
อดเยี่ยม	-1563
urn	-1564
เลยค่ะ	-1565
สิน	-1566
aper	-1567
▁Un	-1568
ไม้	-1569
▁Can	-1570
▁เหมาะ	-1571
จน	-1572
lic	-1573
สําคัญ	-1574
▁perfect	-1575
ipp	-1576
▁อย่าง	-1577
มผ	-1578
▁inst	-1579
ใด	-1580
▁Co	-1581
▁De	-1582
ทําความสะอาด	-1583
แย	-1584
ไม	-1585
หลากหลาย	-1586
▁keep	-1587
นี	-1588
ild	-1589
ดูแล	-1590
เบอร์	-1591
▁said	-1592
ock	-1593
▁Length	-1594
▁ext	-1595
คาด	-1596
นอก	-1597
เรียน	-1598
▁econom	-1599
▁ind	-1600
ittle	-1601
ภายใน	-1602
เรียบ	-1603
มากกว่า	-1604
pro	-1605
โมง	-1606
ates	-1607
andard	-1608
รู้สึก	-1609
▁her	-1610
ละเอ	-1611
erg	-1612
คุณภาพดี	-1613
▁ไม่มี	-1614
วจ	-1615
ปิด	-1616
▁USB	-1617
chn	-1618
ภูมิ	-1619
▁his	-1620
ให้คุณ	-1621
ox	-1622
ละเอียด	-1623
▁av	-1624
▁quarter	-1625
เหล่านี้	-1626
▁know	-1627
ดาษ	-1628
▁เด	-1629
และการ	-1630
▁Okay	-1631
IC	-1632
▁เครื่อง	-1633
ที่คุณชื่นชอบ	-1634
ทุน	-1635
cial	-1636
▁better	-1637
izz	-1638
▁ถ	-1639
gr	-1640
blem	-1641
just	-1642
เพิ่มขึ้น	-1643
▁where	-1644
▁เช	-1645
▁fun	-1646
แห่ง	-1647
ว่ามัน	-1648
อลล	-1649
ลํา	-1650
▁cap	-1651
ell	-1652
▁eff	-1653
▁จํานวน	-1654
▁play	-1655
ts	-1656
ยี	-1657
▁reg	-1658
▁Su	-1659
▁sound	-1660
ใต้	-1661
▁problem	-1662
สมบัติ	-1663
joy	-1664
โก	-1665
ks	-1666
วัต	-1667
▁sure	-1668
ทัน	-1669
achine	-1670
▁cre	-1671
ix	-1672
▁soft	-1673
เต็ม	-1674
แม	-1675
▁ขอบคุณ	-1676
▁×	-1677
▁under	-1678
็อ	-1679
เรีย	-1680
เหน	-1681
บา	-1682
▁using	-1683
ป้องกัน	-1684
▁got	-1685
ริมาณ	-1686
ash	-1687
สิ่งที่	-1688
แนว	-1689
azon	-1690
หรัฐ	-1691
บรร	-1692
หน่อย	-1693
พลาสติก	-1694
กระดาษ	-1695
็ด	-1696
ather	-1697
▁since	-1698
แทน	-1699
▁กร	-1700
ไฟฟ้า	-1701
จับ	-1702
arge	-1703
▁det	-1704
▁Col	-1705
สนใจ	-1706
ตลอด	-1707
yl	-1708
▁before	-1709
มั่น	-1710
ines	-1711
AC	-1712
พา	-1713
imens	-1714
▁prot	-1715
หลัก	-1716
ยะ	-1717
ness	-1718
โปร	-1719
▁They	-1720
▁En	-1721
หญ	-1722
▁aut	-1723
คโน	-1724
ชัด	-1725
▁fin	-1726
idth	-1727
ก็ตาม	-1728
▁little	-1729
จีน	-1730
▁feel	-1731
▁down	-1732
คโนโล	-1733
▁fabric	-1734
ouse	-1735
จอง	-1736
สถาน	-1737
ญา	-1738
้าว	-1739
▁But	-1740
ัม	-1741
▁purch	-1742
▁cons	-1743
ลดลง	-1744
รอย	-1745
ยุ	-1746
▁พวก	-1747
RO	-1748
▁take	-1749
ai	-1750
ซ่า	-1751
rol	-1752
คโนโลยี	-1753
ption	-1754
RI	-1755
ural	-1756
ประกอบ	-1757
▁ste	-1758
▁prev	-1759
▁เพิ	-1760
ดูเหมือน	-1761
wn	-1762
▁way	-1763
มอง	-1764
▁Ne	-1765
▁something	-1766
อุปกรณ์	-1767
ED	-1768
▁aw	-1769
struction	-1770
เมือง	-1771
ผสม	-1772
พบ	-1773
ถือ	-1774
สัน	-1775
▁again	-1776
ชาร์	-1777
นุ่ม	-1778
้าร	-1779
เฟ	-1780
เท่า	-1781
ps	-1782
aving	-1783
▁Material	-1784
คุ้มค่า	-1785
▁cr	-1786
ว่าง	-1787
ices	-1788
▁sur	-1789
สัมผ	-1790
uc	-1791
▁มม	-1792
างเก	-1793
▁such	-1794
ผม	-1795
▁fil	-1796
สนุก	-1797
รัก	-1798
ides	-1799
▁support	-1800
ขาย	-1801
▁ins	-1802
างเกง	-1803
ient	-1804
บริการ	-1805
▁เรา	-1806
ทําจาก	-1807
ited	-1808
วี	-1809
ือบ	-1810
▁looking	-1811
ล์	-1812
อิน	-1813
ชื่อ	-1814
ียม	-1815
▁mm	-1816
แขน	-1817
▁without	-1818
▁•	-1819
๊ะ	-1820
ex	-1821
ren	-1822
cond	-1823
▁รอง	-1824
▁pizz	-1825
ตะ	-1826
ัพท์	-1827
พลัง	-1828
▁another	-1829
หนา	-1830
▁small	-1831
▁del	-1832
กล่อง	-1833
ศัพท์	-1834
line	-1835
สิทธิภาพ	-1836
omm	-1837
pper	-1838
fact	-1839
กลิ่น	-1840
oss	-1841
▁Br	-1842
ified	-1843
▁inv	-1844
▁think	-1845
วันที่	-1846
▁ถ้า	-1847
รอ	-1848
pen	-1849
เจ้า	-1850
หญิง	-1851
▁เล	-1852
สหรัฐ	-1853
▁put	-1854
ailable	-1855
สอบ	-1856
แน่น	-1857
จัก	-1858
ons	-1859
▁else	-1860
imes	-1861
เสริม	-1862
▁–	-1863
▁both	-1864
▁มีความ	-1865
ยิ่ง	-1866
ology	-1867
ict	-1868
ขา	-1869
▁Fe	-1870
ows	-1871
มีการ	-1872
ty	-1873
แม้	-1874
io	-1875
▁em	-1876
ษา	-1877
ยา	-1878
iss	-1879
▁expect	-1880
▁Comp	-1881
คอ	-1882
▁minut	-1883
▁นาที	-1884
ร่วม	-1885
▁still	-1886
แห้ง	-1887
▁anything	-1888
พูด	-1889
อรี่	-1890
งาม	-1891
▁def	-1892
วล	-1893
▁ระบบ	-1894
arm	-1895
มากขึ้น	-1896
เคร	-1897
▁เพิ่ม	-1898
บู	-1899
▁cert	-1900
ซซ่า	-1901
ชีวิต	-1902
ester	-1903
โรง	-1904
เส้น	-1905
▁form	-1906
▁An	-1907
▁find	-1908
▁comfortable	-1909
ไข	-1910
▁Warranty	-1911
view	-1912
▁เหมาะสําหรับ	-1913
ันธ	-1914
จะไม่	-1915
แผ่น	-1916
ความต้องการ	-1917
▁Mod	-1918
ตั้งแต่	-1919
▁going	-1920
IL	-1921
▁Amazon	-1922
▁wash	-1923
▁end	-1924
เหมาะสม	-1925
▁techn	-1926
▁happ	-1927
▁เนื้อ	-1928
อกาส	-1929
ract	-1930
ufact	-1931
สุข	-1932
ability	-1933
ey	-1934
ของเรา	-1935
▁ml	-1936
อส	-1937
จึง	-1938
▁love	-1939
เอา	-1940
พั	-1941
ประสิทธิภาพ	-1942
▁plastic	-1943
elf	-1944
▁dry	-1945
▁Pr	-1946
▁Type	-1947
ทะ	-1948
ของการ	-1949
▁Dimens	-1950
▁Se	-1951
เกินไป	-1952
▁Cont	-1953
ET	-1954
▁นอก	-1955
เพลง	-1956
▁enjoy	-1957
โป	-1958
▁Le	-1959
ction	-1960
ิตร	-1961
▁grow	-1962
ement	-1963
ตรวจ	-1964
อเม	-1965
ชาร์จ	-1966
).	-1967
ผน	-1968
ว์	-1969
co	-1970
iting	-1971
แสง	-1972
▁head	-1973
▁shop	-1974
ณา	-1975
▁air	-1976
สัมผัส	-1977
ใคร	-1978
▁Care	-1979
▁หาก	-1980
▁rece	-1981
ational	-1982
ond	-1983
ดีค่ะ	-1984
ตอบ	-1985
▁รอบ	-1986
uck	-1987
▁around	-1988
▁month	-1989
ures	-1990
▁pick	-1991
หาก	-1992
IS	-1993
▁interest	-1994
ิ้ง	-1995
lex	-1996
acity	-1997
เอกสาร	-1998
▁Air	-1999
โทรศัพท์	-2000
▁Tr	-2001
ทุ่ม	-2002
เพิ่มเติม	-2003
ีด	-2004
ปาก	-2005
มาย	-2006
▁cover	-2007
▁Number	-2008
ชิ้น	-2009
โครง	-2010
สิ่งนี้	-2011
iet	-2012
▁conf	-2013
▁ไ	-2014
ape	-2015
wh	-2016
เกิดขึ้น	-2017
red	-2018
illion	-2019
▁Q	-2020
▁Ind	-2021
ตเต	-2022
็จ	-2023
ต่ํา	-2024
▁let	-2025
▁available	-2026
▁SP	-2027
▁Sp	-2028
▁phone	-2029
▁มาพร้อม	-2030
▁wear	-2031
ason	-2032
ไหนคะ	-2033
อยู่ที่	-2034
els	-2035
กระจ	-2036
▁batter	-2037
▁second	-2038
ina	-2039
▁serv	-2040
ห้อง	-2041
EL	-2042
เพล	-2043
ier	-2044
ลม	-2045
ครึ่ง	-2046
▁text	-2047
▁life	-2048
ody	-2049
ครัว	-2050
แม่	-2051
ours	-2052
▁mil	-2053
พระ	-2054
▁lot	-2055
ouch	-2056
หัส	-2057
ยืด	-2058
ost	-2059
mer	-2060
cess	-2061
▁rest	-2062
ดิ	-2063
ไร้	-2064
สมัย	-2065
▁cut	-2066
▁วัสดุ	-2067
ที่ไม่	-2068
ฏิ	-2069
▁Weight	-2070
▁Section	-2071
ตเตอรี่	-2072
ove	-2073
▁She	-2074
▁ฮ	-2075
ยาก	-2076
ics	-2077
ควบ	-2078
lection	-2079
▁oil	-2080
คาร	-2081
▁att	-2082
ัท	-2083
EC	-2084
พัฒ	-2085
จะเป็น	-2086
US	-2087
ประเภท	-2088
อดภัย	-2089
▁Notes	-2090
อ่อน	-2091
▁dr	-2092
▁case	-2093
▁Z	-2094
▁review	-2095
▁works	-2096
ี่ป	-2097
▁manufact	-2098
ขอ	-2099
คู่	-2100
ery	-2101
▁คุณสามารถ	-2102
เดินทาง	-2103
เชื่อม	-2104
▁ส่วน	-2105
▁White	-2106
▁Great	-2107
▁stor	-2108
eneral	-2109
▁food	-2110
เจน	-2111
▁try	-2112
▁bought	-2113
owing	-2114
ญี่ป	-2115
รณ์	-2116
ains	-2117
▁รวม	-2118
▁Ex	-2119
ไทย	-2120
▁movie	-2121
ีม	-2122
คุม	-2123
▁hard	-2124
กรม	-2125
▁To	-2126
ike	-2127
▁trust	-2128
▁Thank	-2129
▁rel	-2130
ญี่ปุ่น	-2131
ually	-2132
aut	-2133
▁ไซส์	-2134
ต่อเนื่อง	-2135
sole	-2136
▁minutes	-2137
▁pack	-2138
ph	-2139
ูน	-2140
ะคะ	-2141
▁เอ	-2142
▁sim	-2143
ommend	-2144
its	-2145
▁nice	-2146
▁That	-2147
▁นอกจาก	-2148
ธรรมชาติ	-2149
▁print	-2150
กระช	-2151
ขณะที่	-2152
▁enough	-2153
▁สู	-2154
มอ	-2155
่านั้น	-2156
▁start	-2157
▁loc	-2158
▁ช่อง	-2159
▁Or	-2160
พร	-2161
▁top	-2162
▁trans	-2163
แก่	-2164
เคลื่อน	-2165
▁found	-2166
สัญ	-2167
▁main	-2168
estyle	-2169
▁cor	-2170
ามี	-2171
▁เธอ	-2172
▁ทําให้	-2173
บาท	-2174
าสตร์	-2175
อลลาร์	-2176
▁สิ่ง	-2177
ลงทุน	-2178
เวล	-2179
▁On	-2180
ative	-2181
▁style	-2182
read	-2183
▁lifestyle	-2184
▁please	-2185
ที่เป็น	-2186
ฟ์	-2187
ณี	-2188
▁ret	-2189
▁Fr	-2190
เกม	-2191
OL	-2192
ject	-2193
AM	-2194
au	-2195
ones	-2196
ลอ	-2197
หมึก	-2198
apan	-2199
โซ	-2200
คุณสมบัติ	-2201
▁count	-2202
ปฏิ	-2203
แจ	-2204
pecial	-2205
atic	-2206
▁charact	-2207
oard	-2208
velop	-2209
วดเร็ว	-2210
เหนือ	-2211
▁same	-2212
บาล	-2213
▁Be	-2214
weight	-2215
พื้นที่	-2216
ส่งออก	-2217
รส	-2218
ดูแลรักษา	-2219
เหมาะกับ	-2220
ควบคุม	-2221
เทคโนโลยี	-2222
ยายาม	-2223
▁น้ําหนัก	-2224
ไรก็ตาม	-2225
als	-2226
rip	-2227
▁ตาม	-2228
พก	-2229
▁place	-2230
สก	-2231
กระชับ	-2232
▁tick	-2233
▁เย	-2234
หาย	-2235
▁large	-2236
▁open	-2237
OM	-2238
ไม่สามารถ	-2239
aw	-2240
▁แผ่น	-2241
▁type	-2242
be	-2243
ครอบ	-2244
▁Shop	-2245
จุด	-2246
กลุ่ม	-2247
ared	-2248
ages	-2249
▁dev	-2250
▁though	-2251
▁kind	-2252
นี่	-2253
gan	-2254
ปั	-2255
รุ่น	-2256
),	-2257
ov	-2258
ประโย	-2259
▁dri	-2260
▁เช่น	-2261
ivity	-2262
ities	-2263
▁Japan	-2264
▁ref	-2265
โต๊ะ	-2266
เที่ย	-2267
▁story	-2268
ราช	-2269
ระบาย	-2270
▁pers	-2271
ที่ใช้	-2272
lyester	-2273
ไม่ใช่	-2274
▁home	-2275
บท	-2276
ern	-2277
▁Po	-2278
พิซซ่า	-2279
มากมาย	-2280
ความร้อน	-2281
▁pock	-2282
ไหมคะ	-2283
▁free	-2284
โอกาส	-2285
▁วัน	-2286
ระยะ	-2287
▁smooth	-2288
▁met	-2289
ชนิด	-2290
▁old	-2291
ience	-2292
่ารัก	-2293
กิจกรรม	-2294
รู	-2295
▁adjust	-2296
▁fine	-2297
▁giv	-2298
▁ได้ค่ะ	-2299
พยายาม	-2300
tern	-2301
็ต	-2302
สาว	-2303
▁due	-2304
สัง	-2305
bs	-2306
▁full	-2307
กล้	-2308
▁thing	-2309
nect	-2310
ค่อน	-2311
พัฒนา	-2312
ถ่าย	-2313
บูรณ์	-2314
▁rate	-2315
ใช้งานได้	-2316
TM	-2317
เหล็ก	-2318
เด่น	-2319
▁ดีไซน์	-2320
▁Con	-2321
▁pol	-2322
▁inform	-2323
ในราคา	-2324
ตั๋	-2325
▁those	-2326
หอม	-2327
ั่วโมง	-2328
ner	-2329
กาแฟ	-2330
สบ	-2331
ดูด	-2332
itable	-2333
ให้กับ	-2334
▁var	-2335
ลักษ	-2336
ต่างๆ	-2337
▁ent	-2338
รวดเร็ว	-2339
▁red	-2340
ให้ได้	-2341
ined	-2342
irt	-2343
▁cotton	-2344
ราว	-2345
▁cur	-2346
ately	-2347
▁ON	-2348
▁ในไตรมาส	-2349
▁ear	-2350
▁brand	-2351
เดียวกัน	-2352
ward	-2353
ชน์	-2354
มน	-2355
▁mus	-2356
▁ph	-2357
ค่อนข้าง	-2358
ments	-2359
ไปที่	-2360
ลุ	-2361
▁ฟ	-2362
▁คน	-2363
ซื้อสินค้า	-2364
จักร	-2365
▁control	-2366
หู	-2367
▁makes	-2368
สมบูรณ์	-2369
▁All	-2370
OT	-2371
ใกล้	-2372
▁level	-2373
▁bu	-2374
▁steel	-2375
--	-2376
▁recommend	-2377
บริษ	-2378
▁give	-2379
ized	-2380
LE	-2381
▁reading	-2382
ปลอดภัย	-2383
▁Ar	-2384
อ่ะ	-2385
กด	-2386
ประโยชน์	-2387
ott	-2388
ital	-2389
เนิน	-2390
▁books	-2391
▁ble	-2392
ิร์	-2393
▁worth	-2394
▁technology	-2395
สภาพ	-2396
▁contin	-2397
▁ความยาว	-2398
ได้ตาม	-2399
ss	-2400
สั้น	-2401
โดน	-2402
คิดว่า	-2403
กระท	-2404
▁ass	-2405
ume	-2406
de	-2407
จากแบรนด์	-2408
ของปี	-2409
ทั่วไป	-2410
ween	-2411
pr	-2412
สวยงาม	-2413
▁being	-2414
▁ดัง	-2415
โฟ	-2416
สาห	-2417
ตรี	-2418
att	-2419
▁paper	-2420
ครับ	-2421
ติดตั้ง	-2422
▁previous	-2423
▁Blue	-2424
▁certified	-2425
arch	-2426
อเมริ	-2427
▁comm	-2428
สูงสุด	-2429
▁money	-2430
▁However	-2431
▁charg	-2432
▁short	-2433
ราบ	-2434
แบตเตอรี่	-2435
▁doesn	-2436
▁comes	-2437
สําหรับการ	-2438
irm	-2439
เวณ	-2440
amp	-2441
▁Dimensions	-2442
atural	-2443
บริษัท	-2444
โน้	-2445
▁อย่างไรก็ตาม	-2446
กาย	-2447
หยุ่น	-2448
pm	-2449
▁Act	-2450
ccas	-2451
ับสน	-2452
▁quick	-2453
ปกติ	-2454
ane	-2455
▁...	-2456
▁Fl	-2457
▁Te	-2458
▁looks	-2459
แน่	-2460
▁ac	-2461
ก์	-2462
cs	-2463
▁own	-2464
เสน	-2465
thers	-2466
บริเวณ	-2467
ุล	-2468
uring	-2469
อาจจะ	-2470
บิน	-2471
ENT	-2472
เดิม	-2473
ST	-2474
ath	-2475
ุ่ง	-2476
ะลอ	-2477
▁times	-2478
ละคร	-2479
▁When	-2480
riend	-2481
ยม	-2482
ทางการ	-2483
▁won	-2484
▁HD	-2485
มาจาก	-2486
อย่า	-2487
ถาด	-2488
ต่อไป	-2489
▁come	-2490
ลิ	-2491
▁designed	-2492
▁z	-2493
ชื้น	-2494
ION	-2495
ปริมาณ	-2496
▁between	-2497
▁ยาว	-2498
▁didn	-2499
ense	-2500
กี่	-2501
▁import	-2502
หรอ	-2503
▁Cotton	-2504
เซีย	-2505
ไอ	-2506
ese	-2507
กล้อง	-2508
ี้ย	-2509
่วย	-2510
▁bag	-2511
▁pizza	-2512
เสร	-2513
ye	-2514
arb	-2515
UR	-2516
▁exper	-2517
วัส	-2518
ในช่วง	-2519
▁number	-2520
▁สูง	-2521
ฤดู	-2522
▁things	-2523
fe	-2524
▁Sc	-2525
▁tickets	-2526
๊ก	-2527
ams	-2528
ired	-2529
leeve	-2530
เป็นการ	-2531
ไลฟ์	-2532
lt	-2533
ในปี	-2534
▁ap	-2535
ต่อการใช้งาน	-2536
อย่างดี	-2537
เอส	-2538
เหลือ	-2539
let	-2540
▁never	-2541
▁Materials	-2542
▁.	-2543
ffee	-2544
▁Eas	-2545
▁สวัส	-2546
▁easily	-2547
▁special	-2548
▁sever	-2549
ดีคะ	-2550
▁Wor	-2551
▁ser	-2552
▁ประเทศ	-2553
▁exce	-2554
rib	-2555
▁แบบ	-2556
▁here	-2557
▁tak	-2558
▁สวมใส่	-2559
asual	-2560
▁world	-2561
เสร็จ	-2562
▁say	-2563
▁val	-2564
ยังคง	-2565
ยาง	-2566
▁features	-2567
irect	-2568
ไลฟ์สไตล์	-2569
ึด	-2570
▁Is	-2571
มันก็	-2572
▁deli	-2573
▁คุ้มค่า	-2574
มง	-2575
ตั๋ว	-2576
▁three	-2577
อื่นๆ	-2578
ขับ	-2579
ขอบ	-2580
▁มา	-2581
ลึก	-2582
▁protect	-2583
▁Standard	-2584
::::	-2585
ubber	-2586
▁ทั้ง	-2587
▁Cle	-2588
▁อีก	-2589
สาหกรรม	-2590
▁ชุด	-2591
▁China	-2592
▁sub	-2593
ดิน	-2594
▁invest	-2595
ปเป	-2596
land	-2597
จะมี	-2598
ตลาด	-2599
ที่หลากหลาย	-2600
▁อั	-2601
พลังงาน	-2602
ตกแต่ง	-2603
สต	-2604
oc	-2605
ret	-2606
นน	-2607
ฝุ่น	-2608
▁information	-2609
ได้ง่าย	-2610
ries	-2611
ของเขา	-2612
จําเป็น	-2613
ก่อ	-2614
ergy	-2615
▁IN	-2616
ของเธอ	-2617
▁Height	-2618
▁Good	-2619
ศา	-2620
omen	-2621
ดําเนิน	-2622
▁SAN	-2623
▁hold	-2624
▁ก็	-2625
ably	-2626
โท	-2627
▁Machine	-2628
เนียน	-2629
เที่ยว	-2630
ยนต์	-2631
▁elect	-2632
ื่ม	-2633
ครีม	-2634
ฤษ	-2635
ดเด่น	-2636
▁เอา	-2637
▁Min	-2638
▁side	-2639
▁หลังจาก	-2640
ดังนั้น	-2641
▁fast	-2642
▁Items	-2643
รองรับ	-2644
▁name	-2645
▁High	-2646
▁Just	-2647
็กซ์	-2648
ไปกับ	-2649
แข่ง	-2650
rop	-2651
ces	-2652
▁during	-2653
ไหว	-2654
ID	-2655
ตสาหกรรม	-2656
กรอง	-2657
กางเกง	-2658
ดูดี	-2659
ที่น่า	-2660
amer	-2661
Width	-2662
any	-2663
▁real	-2664
▁ต	-2665
cum	-2666
เล็กน้อย	-2667
▁wee	-2668
iqu	-2669
▁สาย	-2670
▁export	-2671
▁นอกจากนี้	-2672
ํารุง	-2673
ลู	-2674
▁es	-2675
ศาสตร์	-2676
▁effect	-2677
▁These	-2678
น้ํามัน	-2679
คอม	-2680
สัญญา	-2681
▁extra	-2682
UT	-2683
▁อัน	-2684
ยอดเยี่ยม	-2685
aht	-2686
วัตต์	-2687
alf	-2688
จริงๆ	-2689
▁mark	-2690
▁gu	-2691
aur	-2692
▁partic	-2693
▁ง	-2694
ING	-2695
||	-2696
▁table	-2697
▁develop	-2698
คําแนะนํา	-2699
ความยาว	-2700
ข่าย	-2701
▁ดังนั้น	-2702
▁few	-2703
olume	-2704
ปัจ	-2705
▁ready	-2706
ไหล	-2707
esh	-2708
....	-2709
▁Features	-2710
▁beaut	-2711
ตรวจสอบ	-2712
▁box	-2713
▁Model	-2714
▁vis	-2715
หนด	-2716
▁wa	-2717
me	-2718
หยุด	-2719
ผิดหวัง	-2720
▁ปรับ	-2721
มั่นใจ	-2722
ตามความต้องการ	-2723
บัตร	-2724
เย็บ	-2725
สินค้าคุณภาพ	-2726
com	-2727
▁กับ	-2728
▁seems	-2729
้อป	-2730
แอ	-2731
ข้อความ	-2732
▁person	-2733
▁rent	-2734
ving	-2735
▁length	-2736
ฟอก	-2737
ident	-2738
มัติ	-2739
▁growth	-2740
สู่	-2741
▁Cap	-2742
▁cost	-2743
ขยายตัวร้อยละ	-2744
บก	-2745
และความ	-2746
▁key	-2747
้วาง	-2748
▁class	-2749
vern	-2750
▁expected	-2751
▁sec	-2752
▁ทุ่ม	-2753
รัด	-2754
ขัน	-2755
▁seem	-2756
▁tot	-2757
RIO	-2758
▁impro	-2759
เทียบ	-2760
▁far	-2761
ับสนุน	-2762
▁music	-2763
▁several	-2764
▁ฉันซื้อ	-2765
ณห	-2766
▁ต้องการ	-2767
▁มีความทนทาน	-2768
▁foll	-2769
▁Sm	-2770
▁away	-2771
กอง	-2772
ters	-2773
วา	-2774
ะฮ	-2775
▁auth	-2776
ิศ	-2777
▁ล้าน	-2778
▁sign	-2779
▁months	-2780
สุทธิ	-2781
น่ารัก	-2782
ways	-2783
▁ใบ	-2784
ดื่ม	-2785
▁ดี	-2786
ทุกคน	-2787
ยืดหยุ่น	-2788
นาม	-2789
▁detail	-2790
▁battery	-2791
แน่ใจ	-2792
ส่วนใหญ่	-2793
ถ้าคุณ	-2794
ไว้วาง	-2795
▁SANRIO	-2796
ไว้วางใจ	-2797
▁ผลิตภัณฑ์	-2798
arg	-2799
ขาด	-2800
oup	-2801
นิด	-2802
ตัวเอง	-2803
ออกมา	-2804
▁less	-2805
มอบ	-2806
ในทุก	-2807
หยัด	-2808
ลี่ย	-2809
▁repl	-2810
▁child	-2811
RE	-2812
▁ve	-2813
▁imp	-2814
▁result	-2815
▁Per	-2816
กําหนด	-2817
▁After	-2818
▁สะ	-2819
▁เยี่ยม	-2820
ซับ	-2821
ที่ยอดเยี่ยม	-2822
ening	-2823
▁Me	-2824
ants	-2825
▁iss	-2826
บํารุง	-2827
▁cond	-2828
หลี	-2829
แดง	-2830
ครั้งแรก	-2831
▁bad	-2832
▁ฉันจะ	-2833
▁รับ	-2834
▁ประเภท	-2835
▁ให้คุณ	-2836
▁check	-2837
▁ขนาดสินค้า	-2838
▁cool	-2839
ron	-2840
▁สีดํา	-2841
.)	-2842
▁Light	-2843
aining	-2844
เรื่องนี้	-2845
ให้ความ	-2846
ccasion	-2847
▁coffee	-2848
เหมาะสมกับ	-2849
หนึ่งใน	-2850
ชม	-2851
▁today	-2852
of	-2853
สนับสนุน	-2854
▁port	-2855
บอล	-2856
yp	-2857
alk	-2858
aph	-2859
▁care	-2860
cl	-2861
รูปแบบ	-2862
เลือกซื้อสินค้า	-2863
mm	-2864
เรือ	-2865
พอดี	-2866
▁New	-2867
▁room	-2868
▁low	-2869
โน้ม	-2870
อิ	-2871
สหรัฐฯ	-2872
▁และการ	-2873
▁pict	-2874
▁กําลัง	-2875
▁strap	-2876
ต่อการ	-2877
ล้าง	-2878
rew	-2879
▁ว	-2880
▁requ	-2881
▁pret	-2882
ับจาก	-2883
ราค	-2884
IG	-2885
บางอย่าง	-2886
แผน	-2887
อี	-2888
▁พื้น	-2889
aha	-2890
คุณจะ	-2891
verage	-2892
อุตสาหกรรม	-2893
ids	-2894
▁hot	-2895
ci	-2896
▁date	-2897
เท่านั้น	-2898
อัตรา	-2899
▁นี่เป็น	-2900
▁button	-2901
สดใส	-2902
ene	-2903
▁ราคา	-2904
▁economic	-2905
TER	-2906
▁แม้	-2907
โดนใจ	-2908
รายการ	-2909
▁screen	-2910
attern	-2911
▁sw	-2912
▁Colour	-2913
▁ed	-2914
resh	-2915
ips	-2916
แล้วค่ะ	-2917
▁days	-2918
▁App	-2919
ublic	-2920
▁ide	-2921
▁Gr	-2922
▁pie	-2923
ointment	-2924
▁pretty	-2925
จาร	-2926
ream	-2927
สงค์	-2928
aj	-2929
▁เก	-2930
▁connect	-2931
▁sho	-2932
▁cook	-2933
▁Aut	-2934
br	-2935
ท้าย	-2936
จัย	-2937
▁writing	-2938
เวอร์	-2939
▁Ph	-2940
iron	-2941
ณหภูมิ	-2942
ให้น	-2943
▁standard	-2944
▁show	-2945
ชิ	-2946
pecially	-2947
ats	-2948
▁having	-2949
เซอร์	-2950
▁สวมใส่สบาย	-2951
▁offer	-2952
ที่สอง	-2953
nam	-2954
ตโน	-2955
เกาะ	-2956
อีกครั้ง	-2957
iness	-2958
▁เดือน	-2959
้ะ	-2960
▁direct	-2961
▁AN	-2962
ประสบ	-2963
▁came	-2964
▁ได้ที่	-2965
▁นาย	-2966
▁Easy	-2967
▁lightweight	-2968
การผลิต	-2969
avy	-2970
emper	-2971
้อปสินค้าคุณภาพ	-2972
ider	-2973
ilt	-2974
▁cal	-2975
ให้ได้มาตรฐาน	-2976
แข็งแรง	-2977
ues	-2978
องค์	-2979
▁One	-2980
▁run	-2981
▁point	-2982
▁watch	-2983
ค้น	-2984
สรร	-2985
oun	-2986
ushion	-2987
เพื่อน	-2988
ried	-2989
▁front	-2990
เกา	-2991
ift	-2992
คริส	-2993
ูเบอร์	-2994
▁รถ	-2995
▁upper	-2996
ันธ์	-2997
▁touch	-2998
▁rep	-2999
ทัพ	-3000
ling	-3001
ช่วยให้	-3002
▁โมง	-3003
▁fact	-3004
▁ชิ้น	-3005
ists	-3006
เนื่องจาก	-3007
ตโนมัติ	-3008
▁doll	-3009
แน่นอน	-3010
▁materials	-3011
▁natural	-3012
ถูกต้อง	-3013
เตร	-3014
inal	-3015
สี่	-3016
▁conven	-3017
โค	-3018
เธ	-3019
ral	-3020
ระบายอากาศ	-3021
pend	-3022
ency	-3023
วิธีการ	-3024
กฎ	-3025
ประจํา	-3026
▁disapp	-3027
vent	-3028
ale	-3029
▁คือ	-3030
แปลง	-3031
▁Hand	-3032
▁pres	-3033
ฉันจะ	-3034
▁half	-3035
ised	-3036
ที่คุณไว้วางใจ	-3037
icro	-3038
▁ทนทาน	-3039
▁move	-3040
แก้	-3041
▁bro	-3042
▁พิ	-3043
sh	-3044
▁colour	-3045
▁perform	-3046
หน่วย	-3047
แท้	-3048
็อก	-3049
▁restaur	-3050
▁General	-3051
ได้ตามไลฟ์สไตล์	-3052
บรรจุ	-3053
olution	-3054
▁addition	-3055
▁เขา	-3056
outh	-3057
ในราคาโดนใจ	-3058
ior	-3059
ได	-3060
▁clear	-3061
▁card	-3062
▁hours	-3063
จัดการ	-3064
▁At	-3065
ให้อ	-3066
ทด	-3067
เชื่อมต่อ	-3068
เช่นกัน	-3069
▁milk	-3070
▁พวกเขา	-3071
▁provides	-3072
ทราบ	-3073
uce	-3074
raw	-3075
ายน	-3076
▁able	-3077
▁big	-3078
ปุ่ม	-3079
ustom	-3080
คนอื่น	-3081
แข่งขัน	-3082
./	-3083
ไม่ต้อง	-3084
มพู	-3085
ชุ่ม	-3086
ิบ	-3087
uff	-3088
▁รับประกัน	-3089
พวกเข	-3090
โพ	-3091
▁friend	-3092
riv	-3093
LY	-3094
▁manufacture	-3095
▁สินค้าได้รับการ	-3096
ลื่น	-3097
▁int	-3098
▁black	-3099
อัตโนมัติ	-3100
▁และเหมาะสมกับ	-3101
ฝา	-3102
แลนด์	-3103
▁น้ํา	-3104
PS	-3105
oor	-3106
▁ทํา	-3107
อเมริกา	-3108
▁making	-3109
ugg	-3110
อนุ	-3111
ไหร	-3112
▁TH	-3113
▁author	-3114
ember	-3115
▁Res	-3116
แนวโน้ม	-3117
ดัน	-3118
iful	-3119
▁pcs	-3120
▁เซ	-3121
เหรอ	-3122
ชะลอ	-3123
▁ฉันไม่	-3124
▁ตอนนี้	-3125
▁Instruction	-3126
KS	-3127
▁turn	-3128
▁med	-3129
ก่อนหน้า	-3130
เกาหลี	-3131
ใช้จ่าย	-3132
ผู	-3133
ator	-3134
แถ	-3135
▁four	-3136
ทันสมัย	-3137
เสนอ	-3138
ชัดเจน	-3139
ดาห์	-3140
ทะเล	-3141
▁งั้น	-3142
วัง	-3143
▁คํา	-3144
กัด	-3145
ยังมี	-3146
ional	-3147
▁reserv	-3148
ัล	-3149
vernment	-3150
osed	-3151
▁warranty	-3152
▁'	-3153
ภาษา	-3154
▁หน้า	-3155
ปดาห์	-3156
ขีด	-3157
▁Hi	-3158
เนื้อผ้า	-3159
นม	-3160
llo	-3161
ames	-3162
istant	-3163
▁line	-3164
▁Des	-3165
▁ด้าน	-3166
รายละเอียด	-3167
ยนตร์	-3168
▁เพราะ	-3169
structions	-3170
▁dem	-3171
กระแท	-3172
rent	-3173
▁bus	-3174
▁comple	-3175
▁บรร	-3176
ung	-3177
▁him	-3178
อุณหภูมิ	-3179
orn	-3180
▁หากคุณ	-3181
▁Pur	-3182
▁toget	-3183
ky	-3184
ตะวัน	-3185
สัก	-3186
ี่ยง	-3187
เฉลี่ย	-3188
▁total	-3189
▁bel	-3190
ภาพยนตร์	-3191
และมี	-3192
▁fam	-3193
▁together	-3194
▁including	-3195
▁heat	-3196
ปรับตัว	-3197
วะ	-3198
oose	-3199
ทันที	-3200
ute	-3201
สูตร	-3202
ที่สวมใส่	-3203
นัด	-3204
ively	-3205
AD	-3206
omatic	-3207
amera	-3208
วัญ	-3209
กระแทก	-3210
ished	-3211
ipped	-3212
สะพ	-3213
โทษ	-3214
ซิ	-3215
เข้ม	-3216
▁appointment	-3217
ออกให้ได้มาตรฐาน	-3218
เซล	-3219
▁Spe	-3220
▁prom	-3221
▁capacity	-3222
ผู้หญิง	-3223
ศึก	-3224
ตัวละคร	-3225
▁รองเท้า	-3226
▁Rem	-3227
▁house	-3228
▁dist	-3229
▁baht	-3230
▁mid	-3231
▁เบ	-3232
▁แข	-3233
▁next	-3234
▁อื่น	-3235
ขวัญ	-3236
▁ในขณะที่	-3237
อธิ	-3238
พัก	-3239
▁getting	-3240
เมน	-3241
Year	-3242
▁opt	-3243
▁expand	-3244
ENC	-3245
▁Out	-3246
▁Other	-3247
ออกจาก	-3248
AB	-3249
▁thick	-3250
▁sect	-3251
▁always	-3252
ขนาดใหญ่	-3253
▁machine	-3254
วิว	-3255
๋ย	-3256
alth	-3257
▁speed	-3258
▁value	-3259
สัต	-3260
▁ลํา	-3261
าบ	-3262
ไปด้วย	-3263
▁Net	-3264
▁million	-3265
llent	-3266
▁helps	-3267
โจ	-3268
เคลือบ	-3269
▁Thai	-3270
▁cent	-3271
ird	-3272
▁must	-3273
osition	-3274
ดาว	-3275
ches	-3276
ode	-3277
บ้าง	-3278
eld	-3279
▁access	-3280
ตี	-3281
."	-3282
▁ใช่	-3283
แยก	-3284
ฟังก์	-3285
ยาน	-3286
▁ทั่ว	-3287
UM	-3288
▁bar	-3289
จัดเก็บ	-3290
บัญ	-3291
▁economy	-3292
▁Im	-3293
ซิป	-3294
▁Would	-3295
▁UK	-3296
ording	-3297
▁pocket	-3298
▁list	-3299
▁surf	-3300
ับจากวัน	-3301
ล่ะ	-3302
ided	-3303
▁service	-3304
ESS	-3305
ฟื้น	-3306
▁จากแบรนด์	-3307
▁Gl	-3308
▁purchase	-3309
ool	-3310
▁แต่ก็	-3311
เกษ	-3312
▁ข้อ	-3313
ออกแบบมา	-3314
▁Soft	-3315
ata	-3316
วรร	-3317
▁Activity	-3318
ีบ	-3319
▁ร้าน	-3320
▁อุ	-3321
▁increase	-3322
ศูน	-3323
▁มันเป็น	-3324
ศูนย์	-3325
เพื่อให้	-3326
▁production	-3327
การทํางาน	-3328
ok	-3329
rect	-3330
สินค	-3331
OS	-3332
ล่า	-3333
ธาร	-3334
▁especially	-3335
tic	-3336
▁super	-3337
▁device	-3338
ไปยัง	-3339
▁disappoint	-3340
▁area	-3341
พิว	-3342
side	-3343
EM	-3344
ลุค	-3345
อนด์	-3346
▁dep	-3347
ีย์	-3348
▁unt	-3349
เสมอ	-3350
arn	-3351
ท่อง	-3352
ไปได้	-3353
,"	-3354
แพ็ค	-3355
▁hair	-3356
โดดเด่น	-3357
aby	-3358
▁equ	-3359
โยบาย	-3360
จบ	-3361
▁finish	-3362
▁poss	-3363
▁appe	-3364
ism	-3365
กี	-3366
เผ	-3367
ainless	-3368
ตน	-3369
ประช	-3370
▁Kore	-3371
▁Ide	-3372
ained	-3373
▁increased	-3374
▁strong	-3375
ork	-3376
▁Age	-3377
พกพา	-3378
โดยเฉพาะ	-3379
▁Sl	-3380
ดีมาก	-3381
▁handle	-3382
uro	-3383
▁purchased	-3384
แกรม	-3385
atible	-3386
▁ในปี	-3387
ผง	-3388
ยิน	-3389
ที่ดีที่สุด	-3390
▁construction	-3391
ขั้น	-3392
แก้ว	-3393
▁moist	-3394
▁working	-3395
▁สวัสดีค่ะ	-3396
ับจากวันผลิต	-3397
ross	-3398
ins	-3399
ไปรับ	-3400
ential	-3401
พิวเตอร์	-3402
▁energy	-3403
▁inside	-3404
ระบุ	-3405
▁quite	-3406
▁left	-3407
อธิบาย	-3408
▁ST	-3409
▁rental	-3410
ทุกอย่าง	-3411
แพง	-3412
ดีขึ้น	-3413
▁MAR	-3414
gs	-3415
ไง	-3416
ดี๋ย	-3417
▁bott	-3418
▁interesting	-3419
▁ปริมาณ	-3420
เกษตร	-3421
เพิ่มความ	-3422
ครอง	-3423
▁BL	-3424
เก่า	-3425
ุต	-3426
ique	-3427
ด้วยการ	-3428
๎อย	-3429
▁reason	-3430
▁เนื่อง	-3431
▁why	-3432
▁typ	-3433
▁ห้าม	-3434
▁sent	-3435
ทั้งสอง	-3436
▁reviews	-3437
หนู	-3438
▁รองรับ	-3439
ิค	-3440
▁หนังสือเล่มนี้	-3441
สาน	-3442
ยิ่งขึ้น	-3443
ปะ	-3444
▁ผ้า	-3445
วิทย	-3446
ของพวกเขา	-3447
ความคิด	-3448
แว	-3449
inter	-3450
ยาวนาน	-3451
ender	-3452
วันนี้	-3453
▁night	-3454
▁+	-3455
▁Red	-3456
▁vers	-3457
▁:)	-3458
▁disc	-3459
▁until	-3460
▁TV	-3461
ทึก	-3462
ในประเทศ	-3463
▁complete	-3464
ตาข่าย	-3465
่อม	-3466
▁ink	-3467
ระวัง	-3468
▁thought	-3469
▁tell	-3470
เหมาะกับกิจกรรม	-3471
เลส	-3472
▁cushion	-3473
▁ton	-3474
▁บาง	-3475
▁slow	-3476
▁แข็ง	-3477
ดุล	-3478
OP	-3479
VC	-3480
ยก	-3481
ปกป้อง	-3482
อร์ต	-3483
ที่ได้	-3484
▁มล	-3485
▁Mac	-3486
▁คล	-3487
ensive	-3488
▁Ideal	-3489
เคลื่อนไหว	-3490
▁ถึง	-3491
นอน	-3492
ขัด	-3493
ใช้ได้	-3494
▁intern	-3495
ขนาดเล็ก	-3496
▁mom	-3497
▁Dep	-3498
▁comb	-3499
▁call	-3500
▁ใช้งาน	-3501
าะห์	-3502
รัฐบาล	-3503
ฝ้าย	-3504
▁Occasion	-3505
▁:|	-3506
▁isn	-3507
yd	-3508
ailand	-3509
▁storage	-3510
▁Very	-3511
▁press	-3512
เคราะห์	-3513
▁adv	-3514
กรณี	-3515
ไหร่	-3516
กิน	-3517
ouble	-3518
▁System	-3519
▁bas	-3520
กันน้ํา	-3521
นั่ง	-3522
ยู	-3523
สมบูรณ์แบบ	-3524
ireless	-3525
๎อยละ	-3526
ฝึก	-3527
▁ลูก	-3528
▁problems	-3529
มาพร้อมกับ	-3530
▁everything	-3531
▁non	-3532
imum	-3533
ุร	-3534
ดีกว่า	-3535
▁Your	-3536
▁Hello	-3537
ดอลลาร์	-3538
ออน	-3539
▁Also	-3540
ปลาย	-3541
augh	-3542
▁characters	-3543
▁nothing	-3544
▁pay	-3545
▁ชั่วโมง	-3546
▁Ro	-3547
▁desc	-3548
▁needs	-3549
▁body	-3550
เมล	-3551
aster	-3552
▁mult	-3553
สั่งซื้อ	-3554
็อค	-3555
▁ever	-3556
ประสงค์	-3557
ประชา	-3558
emperature	-3559
▁ทั่วไป	-3560
ว่ามี	-3561
สัตว์	-3562
ยึด	-3563
วิ่ง	-3564
วัติ	-3565
▁custom	-3566
สัญญาณ	-3567
▁orig	-3568
ither	-3569
▁ดํา	-3570
ield	-3571
stand	-3572
เข้าใจ	-3573
ดอก	-3574
▁okay	-3575
mp	-3576
▁บรรจุ	-3577
▁Dis	-3578
RAL	-3579
▁rubber	-3580
▁อื่นๆ	-3581
็อป	-3582
เรือน	-3583
สนาม	-3584
▁meet	-3585
ทําให้ฉัน	-3586
▁LED	-3587
ตตอน	-3588
▁resp	-3589
เริ่มต้น	-3590
ถอด	-3591
▁ราย	-3592
ไลน์	-3593
▁เสื้อ	-3594
umin	-3595
mium	-3596
รหัส	-3597
▁government	-3598
▁Perf	-3599
ife	-3600
▁beautiful	-3601
band	-3602
self	-3603
ining	-3604
▁process	-3605
เดีย	-3606
โปรด	-3607
ก็ได้	-3608
▁investment	-3609
▁provide	-3610
orry	-3611
ision	-3612
▁return	-3613
where	-3614
ENTRAL	-3615
มีด	-3616
เข้าร	-3617
▁โดยเฉพาะ	-3618
icy	-3619
asing	-3620
err	-3621
หุ	-3622
▁อย่า	-3623
aces	-3624
มุม	-3625
ived	-3626
ออกไป	-3627
ead	-3628
▁Please	-3629
ที่นี่	-3630
gg	-3631
▁comput	-3632
ท่องเที่ยว	-3633
อัง	-3634
▁ดู	-3635
▁consum	-3636
▁จึง	-3637
▁compared	-3638
▁เว	-3639
แขนเสื้อ	-3640
▁est	-3641
▁stud	-3642
▁range	-3643
ote	-3644
ened	-3645
right	-3646
cm	-3647
ปรุง	-3648
▁Thailand	-3649
คนที่	-3650
▁oper	-3651
นักงาน	-3652
จ้ะ	-3653
▁ฮะฮ	-3654
ready	-3655
ภาวะ	-3656
▁within	-3657
KE	-3658
▁swe	-3659
ของขวัญ	-3660
▁white	-3661
ทหาร	-3662
▁sk	-3663
ชาว	-3664
▁scr	-3665
ots	-3666
▁organ	-3667
▁average	-3668
สห	-3669
ข้าว	-3670
ตํา	-3671
▁cheap	-3672
▁แข็งแรง	-3673
พลี	-3674
ดี๋ยว	-3675
▁เจ	-3676
▁ride	-3677
ทิ้ง	-3678
aker	-3679
าก็	-3680
go	-3681
▁SPENC	-3682
way	-3683
rey	-3684
ธุร	-3685
▁ซื้อ	-3686
▁meas	-3687
pack	-3688
เชีย	-3689
หน้าที่	-3690
คุณภาพสูง	-3691
นึง	-3692
▁protection	-3693
▁drink	-3694
▁pattern	-3695
ten	-3696
การ์	-3697
▁ชนิด	-3698
สีสัน	-3699
ปเปอร์	-3700
▁กระเป๋า	-3701
▁ช่วยให้	-3702
▁glass	-3703
▁ซึ่งเป็น	-3704
องศา	-3705
ลักษณ์	-3706
ปฏิบัติ	-3707
itten	-3708
เอ็กซ์	-3709
▁cream	-3710
▁Sleeve	-3711
▁SPENCER	-3712
กระทบ	-3713
▁Water	-3714
▁camera	-3715
▁Uber	-3716
OW	-3717
▁charge	-3718
ชัน	-3719
ที่ผ่าน	-3720
▁bre	-3721
ajor	-3722
▁weight	-3723
บอกว่า	-3724
▁แพ	-3725
▁May	-3726
ืม	-3727
▁sy	-3728
▁Reg	-3729
ister	-3730
▁correct	-3731
คอล	-3732
▁abs	-3733
▁someone	-3734
โภ	-3735
▁Gender	-3736
ระเบ	-3737
คอมพิวเตอร์	-3738
year	-3739
▁XL	-3740
▁ONLY	-3741
▁Qu	-3742
▁game	-3743
▁note	-3744
▁พี่	-3745
▁others	-3746
ux	-3747
▁convenient	-3748
▁needed	-3749
▁MARKS	-3750
กลง	-3751
The	-3752
gram	-3753
ล้าน	-3754
▁sil	-3755
สมา	-3756
▁happy	-3757
แอล	-3758
▁applic	-3759
ฟิล	-3760
▁Polyester	-3761
the	-3762
ference	-3763
▁soon	-3764
▁alm	-3765
ention	-3766
PH	-3767
เราะ	-3768
▁restaurant	-3769
▁แต่ฉัน	-3770
ใช้เวลา	-3771
ตู	-3772
อะไรคะ	-3773
ii	-3774
▁however	-3775
ถาม	-3776
▁Set	-3777
▁น่า	-3778
ตาล	-3779
▁arri	-3780
iety	-3781
ร๎อยละ	-3782
▁United	-3783
▁experience	-3784
▁Collection	-3785
สีดํา	-3786
กระด	-3787
lf	-3788
ucks	-3789
▁already	-3790
▁Capacity	-3791
UN	-3792
เลข	-3793
ผลิตภัณฑ์นี้	-3794
IR	-3795
▁Wa	-3796
โก้	-3797
กฤษ	-3798
ตัดสิน	-3799
▁continu	-3800
ิกา	-3801
มองหา	-3802
CENTRAL	-3803
มาถึง	-3804
ห้าม	-3805
นําเข้า	-3806
▁อยากได้	-3807
ชนะ	-3808
ซ้ํา	-3809
เป็นเรื่อง	-3810
จุบัน	-3811
iew	-3812
▁Casual	-3813
reath	-3814
VER	-3815
▁ca	-3816
อย่างยิ่ง	-3817
▁Fit	-3818
ทรัพ	-3819
ู่น	-3820
ื่อย	-3821
▁PVC	-3822
▁pass	-3823
ประหยัด	-3824
เจ้าของ	-3825
▁buying	-3826
▁ยัง	-3827
▁current	-3828
โรป	-3829
▁Pre	-3830
▁Print	-3831
▁once	-3832
ช้า	-3833
▁docum	-3834
▁countries	-3835
ได้มั้ยคะ	-3836
นเลส	-3837
▁yet	-3838
สิ้น	-3839
und	-3840
มือถือ	-3841
อุ่น	-3842
▁phot	-3843
▁creat	-3844
ถุง	-3845
ราคาน	-3846
ivers	-3847
ateg	-3848
ann	-3849
▁performance	-3850
ลวด	-3851
ด้านบน	-3852
▁,	-3853
▁pop	-3854
▁against	-3855
▁lead	-3856
พลาด	-3857
ตัดเย็บ	-3858
▁filter	-3859
น้ําหนักเบา	-3860
ซม	-3861
▁demand	-3862
ination	-3863
ded	-3864
หรู	-3865
▁wanted	-3866
▁colors	-3867
จัง	-3868
look	-3869
▁sol	-3870
▁Euro	-3871
▁items	-3872
หัวเราะ	-3873
เกอร์	-3874
▁El	-3875
เช่า	-3876
itc	-3877
▁infl	-3878
สุขภาพ	-3879
▁function	-3880
▁ทั่วไปไซส์	-3881
หม้อ	-3882
คุณสามารถ	-3883
อยากได้	-3884
กุ	-3885
▁ฉันชอบ	-3886
▁bleach	-3887
ety	-3888
▁ดูเหมือน	-3889
ลําดับ	-3890
▁vide	-3891
put	-3892
▁mem	-3893
ส่วนผสม	-3894
▁project	-3895
▁foot	-3896
ช์	-3897
uss	-3898
โอล	-3899
▁stick	-3900
เหมาะสําหรับ	-3901
เปร	-3902
▁sit	-3903
atte	-3904
▁carry	-3905
▁written	-3906
otor	-3907
ประสบการณ์	-3908
จด	-3909
ุนั	-3910
inite	-3911
▁Mo	-3912
▁fresh	-3913
สาธาร	-3914
▁หล	-3915
▁clos	-3916
OO	-3917
พันธ	-3918
orth	-3919
แน่ใจว่า	-3920
▁Ste	-3921
itch	-3922
▁quickly	-3923
ทําการ	-3924
ผ่อน	-3925
ออ	-3926
ุนัข	-3927
aint	-3928
▁ตอน	-3929
เอว	-3930
▁สรอ	-3931
anced	-3932
ที่มีความ	-3933
ทธ	-3934
ดาย	-3935
▁tour	-3936
อูเบอร์	-3937
▁model	-3938
โปรง	-3939
แจ้ง	-3940
▁Fo	-3941
โครงการ	-3942
▁ele	-3943
หูฟัง	-3944
▁ชั้น	-3945
▁แล้วก็	-3946
อิส	-3947
ปั่น	-3948
▁ซัก	-3949
ances	-3950
เรียก	-3951
▁might	-3952
ฬิกา	-3953
เพลิน	-3954
▁stars	-3955
ประกอบด้วย	-3956
ware	-3957
ศึกษา	-3958
▁major	-3959
อยู่กับ	-3960
ทีม	-3961
ฝ่าย	-3962
▁พบ	-3963
rivate	-3964
▁miss	-3965
AY	-3966
สะพาย	-3967
eric	-3968
oice	-3969
▁space	-3970
iod	-3971
หมุน	-3972
▁ann	-3973
ชะลอตัว	-3974
▁Ed	-3975
ured	-3976
▁base	-3977
▁either	-3978
ases	-3979
ดังกล่าว	-3980
▁Off	-3981
ula	-3982
กัง	-3983
คราม	-3984
▁et	-3985
▁Year	-3986
ให้ฉัน	-3987
โบ	-3988
light	-3989
▁ดอลลาร์	-3990
med	-3991
▁kg	-3992
pport	-3993
กระโปรง	-3994
▁ถาด	-3995
itions	-3996
▁ระดับ	-3997
สัปดาห์	-3998
ACK	-3999
ไม่ดี	-4000
คอน	-4001
▁กรัม	-4002
เช่	-4003
ตื่น	-4004
อร์ด	-4005
เวลาน	-4006
สุดท้าย	-4007
รด	-4008
eler	-4009
เทียบกับ	-4010
โภค	-4011
มาตรฐานไซส์	-4012
ration	-4013
▁trying	-4014
พี่	-4015
▁parts	-4016
ced	-4017
▁CD	-4018
ฬา	-4019
▁Thanks	-4020
▁cup	-4021
▁modern	-4022
▁worked	-4023
▁compl	-4024
จํากัด	-4025
เชิง	-4026
ฟังก์ชั่น	-4027
เสียบ	-4028
ใช้มัน	-4029
เรื่องราว	-4030
ซอน	-4031
▁ด้าม	-4032
par	-4033
ธุรกิจ	-4034
▁ลด	-4035
book	-4036
▁มอบ	-4037
ิ้	-4038
ท่า	-4039
▁pad	-4040
▁character	-4041
▁||	-4042
▁South	-4043
คาดหวัง	-4044
รู้ว่า	-4045
▁Let	-4046
กะ	-4047
▁later	-4048
initely	-4049
รีวิว	-4050
ผสาน	-4051
ถนน	-4052
▁prob	-4053
ump	-4054
คลาส	-4055
ด้านใน	-4056
▁จอง	-4057
▁Sure	-4058
▁เนื่องจาก	-4059
▁CH	-4060
ploy	-4061
ผลกระทบ	-4062
มะ	-4063
top	-4064
▁ทรง	-4065
เนีย	-4066
▁Tw	-4067
eah	-4068
▁dam	-4069
▁รวมทั้ง	-4070
▁Suitable	-4071
ด้านหน้า	-4072
ports	-4073
▁kids	-4074
▁Car	-4075
แก้ไข	-4076
ใช้งานได้ดี	-4077
uit	-4078
▁แน	-4079
used	-4080
โอเค	-4081
▁Design	-4082
ummer	-4083
มูล	-4084
▁Comfort	-4085
▁baby	-4086
rown	-4087
ully	-4088
▁took	-4089
▁electric	-4090
▁fore	-4091
▁trave	-4092
แหน	-4093
▁iP	-4094
retch	-4095
▁build	-4096
ออกกําลัง	-4097
▁ผลิตจากวัสดุ	-4098
▁Women	-4099
ความจุ	-4100
▁flex	-4101
▁รอบอก	-4102
iter	-4103
เข้าไป	-4104
ก้าว	-4105
ลับ	-4106
▁least	-4107
▁art	-4108
▁offers	-4109
▁enh	-4110
▁actually	-4111
ys	-4112
ปากกา	-4113
อยากจะ	-4114
ครอบครัว	-4115
▁แบ	-4116
ิดเพลิน	-4117
จัดส่ง	-4118
คคล	-4119
นั่น	-4120
ได้ใน	-4121
▁men	-4122
จนถึง	-4123
▁near	-4124
▁โปร	-4125
จํานวนมาก	-4126
raft	-4127
ิมป	-4128
ฟอง	-4129
ง่ายดาย	-4130
obal	-4131
wear	-4132
อาท	-4133
โต้	-4134
pped	-4135
▁disappointed	-4136
ทย์	-4137
▁respect	-4138
▁store	-4139
▁sector	-4140
▁cable	-4141
reme	-4142
▁etc	-4143
ตัน	-4144
▁done	-4145
โพง	-4146
vert	-4147
▁longer	-4148
อายุการใช้งาน	-4149
▁เพียง	-4150
▁ลิตร	-4151
▁change	-4152
▁instead	-4153
วัย	-4154
อังกฤษ	-4155
ุ่งนี้	-4156
▁mob	-4157
▁leather	-4158
▁prices	-4159
▁Max	-4160
istance	-4161
▁install	-4162
▁Adjust	-4163
ค่อย	-4164
เจอ	-4165
เดอร์	-4166
though	-4167
▁Ke	-4168
▁bit	-4169
leep	-4170
เช้า	-4171
ด้านหลัง	-4172
กังวล	-4173
▁city	-4174
ทอง	-4175
artment	-4176
rist	-4177
สถานที่	-4178
▁along	-4179
▁lock	-4180
ท้อง	-4181
▁ev	-4182
▁ของฉัน	-4183
▁slee	-4184
▁เพิ่มความ	-4185
clud	-4186
ฟรี	-4187
▁Cool	-4188
▁higher	-4189
▁Oh	-4190
ope	-4191
แหล	-4192
ุธ	-4193
▁ดาว	-4194
▁period	-4195
▁instructions	-4196
▁Mult	-4197
▁sens	-4198
ทํางานได้ดี	-4199
แค	-4200
▁ob	-4201
▁billion	-4202
conomic	-4203
▁perfectly	-4204
▁CO	-4205
▁Intern	-4206
นาที	-4207
▁เคล	-4208
▁เมตร	-4209
▁improve	-4210
ipping	-4211
▁tonight	-4212
นส์	-4213
ยอด	-4214
▁ใส่	-4215
แหน่ง	-4216
▁health	-4217
ONE	-4218
หรือไม่	-4219
▁Americ	-4220
▁ปล	-4221
เยอะ	-4222
ใช้น	-4223
สําหรับฉัน	-4224
การใช้	-4225
▁replac	-4226
้ํามัน	-4227
▁tried	-4228
กระจาย	-4229
arp	-4230
▁account	-4231
▁confirm	-4232
ข่วน	-4233
▁ลาย	-4234
ิมปิก	-4235
▁close	-4236
lined	-4237
ิติ	-4238
▁ordered	-4239
ories	-4240
พี	-4241
▁Pink	-4242
ives	-4243
iam	-4244
ประวัติ	-4245
เพื่อการ	-4246
ยุโรป	-4247
ที่ต้องการ	-4248
▁tom	-4249
เข้ากับ	-4250
ออกกําลังกาย	-4251
▁market	-4252
เป็นพิเศษ	-4253
fety	-4254
สาขา	-4255
มาตรการ	-4256
▁Long	-4257
บันทึก	-4258
ผู้ชาย	-4259
▁cir	-4260
▁Skin	-4261
▁excellent	-4262
ภายใต้	-4263
กรา	-4264
▁according	-4265
นาย	-4266
inese	-4267
คิว	-4268
▁simple	-4269
board	-4270
พื้นฐาน	-4271
ัต	-4272
จิ	-4273
▁pan	-4274
▁pizzas	-4275
▁hum	-4276
บาร์	-4277
▁Sil	-4278
▁Green	-4279
ฟอกขาว	-4280
gle	-4281
ดึง	-4282
iver	-4283
ประชุม	-4284
▁Waist	-4285
▁บริษัท	-4286
▁Wind	-4287
ตัดสินใจ	-4288
ในไตรมาส	-4289
▁Bust	-4290
▁temperature	-4291
ดีโอ	-4292
▁Pe	-4293
▁possible	-4294
ที่เรา	-4295
▁รัฐ	-4296
ไร้สาย	-4297
▁เรื่อง	-4298
oh	-4299
▁:-	-4300
▁องศา	-4301
▁series	-4302
agn	-4303
ingle	-4304
ลูกค้า	-4305
urs	-4306
▁กก	-4307
แย่	-4308
เคส	-4309
urity	-4310
ขีดข่วน	-4311
คลาสสิ	-4312
▁contract	-4313
กาล	-4314
▁net	-4315
▁indust	-4316
room	-4317
▁ผู้ใหญ่	-4318
ความเป็น	-4319
▁Part	-4320
▁face	-4321
IM	-4322
ธนา	-4323
ansion	-4324
oud	-4325
▁data	-4326
▁suitable	-4327
อํา	-4328
orrow	-4329
ไว้ใน	-4330
เรียบร้อย	-4331
DP	-4332
โช	-4333
▁gives	-4334
▁AS	-4335
▁safe	-4336
ylon	-4337
▁shape	-4338
CD	-4339
itty	-4340
▁ลําลอง	-4341
กลาย	-4342
ธนาคาร	-4343
ียญ	-4344
▁create	-4345
ik	-4346
ศิล	-4347
คลุม	-4348
▁whe	-4349
ulation	-4350
หรียญ	-4351
เชื้อ	-4352
ทัด	-4353
สัมพ	-4354
▁Phone	-4355
ภูมิภาค	-4356
▁computer	-4357
▁proper	-4358
▁thanks	-4359
ลักษณะ	-4360
ต่างประเทศ	-4361
▁styl	-4362
ว่าเป็น	-4363
▁แต่มัน	-4364
โอลิมปิก	-4365
▁Its	-4366
▁mess	-4367
▁probably	-4368
เนียม	-4369
ที่สามารถ	-4370
▁wasn	-4371
ปัจจุบัน	-4372
สงคราม	-4373
▁received	-4374
▁ขอบคุณค่ะ	-4375
▁sn	-4376
▁ต้อง	-4377
วบ	-4378
▁ด้วยราคา	-4379
อกเบ	-4380
▁moment	-4381
▁pot	-4382
▁particular	-4383
ล่าง	-4384
▁PL	-4385
itive	-4386
คริสต์	-4387
▁NI	-4388
fic	-4389
▁surface	-4390
เลค	-4391
▁Adult	-4392
▁original	-4393
▁Use	-4394
พรร	-4395
▁เค	-4396
ข้อง	-4397
▁reservation	-4398
เขียว	-4399
▁regular	-4400
สนอง	-4401
▁stay	-4402
เขต	-4403
หะ	-4404
▁following	-4405
ของผู้	-4406
น้ําเงิน	-4407
ster	-4408
▁hol	-4409
▁warm	-4410
fl	-4411
▁เพศ	-4412
▁business	-4413
▁ติด	-4414
▁durability	-4415
▁หัว	-4416
▁via	-4417
ไก	-4418
▁เดี๋ยว	-4419
▁outsole	-4420
ร้อง	-4421
หด	-4422
▁dom	-4423
arbucks	-4424
owder	-4425
าดอกเบ	-4426
ที่อยู่	-4427
ify	-4428
ients	-4429
บัง	-4430
▁ปก	-4431
form	-4432
▁texture	-4433
กรอบ	-4434
phones	-4435
ส้	-4436
ภาษ	-4437
ครั้งที่	-4438
unch	-4439
เต้น	-4440
กระจก	-4441
เร่ง	-4442
▁วัตต์	-4443
ฝร	-4444
จิต	-4445
เพิ่ง	-4446
▁various	-4447
′′	-4448
เหตุผล	-4449
▁สะดวก	-4450
ury	-4451
▁variety	-4452
กองทัพ	-4453
▁กระ	-4454
ising	-4455
▁expansion	-4456
proof	-4457
ชุ่มชื้น	-4458
เปลี่ยนแปลง	-4459
งบ	-4460
reng	-4461
ซ่อม	-4462
▁ในการ	-4463
free	-4464
▁Micro	-4465
over	-4466
▁family	-4467
ทิศ	-4468
ฝรั่ง	-4469
▁SH	-4470
▁Don	-4471
igital	-4472
▁Compatible	-4473
▁ส่ง	-4474
ดวง	-4475
สตาร์	-4476
เอกชน	-4477
▁Grey	-4478
▁Eng	-4479
▁คุณสมบัติ	-4480
▁sounds	-4481
▁condition	-4482
▁แค่	-4483
บุคคล	-4484
ต้าน	-4485
nding	-4486
▁cour	-4487
▁online	-4488
ที่ผ่านมา	-4489
▁Depth	-4490
สะดวกสบาย	-4491
itchen	-4492
udio	-4493
▁กางเกง	-4494
▁Contains	-4495
ยัน	-4496
▁รูป	-4497
ลบ	-4498
เอเชีย	-4499
นิยม	-4500
▁pages	-4501
ตอบสนอง	-4502
▁added	-4503
ically	-4504
▁ที่จะ	-4505
▁rad	-4506
▁step	-4507
เทล	-4508
แนน	-4509
▁view	-4510
▁lower	-4511
lymp	-4512
เสียหาย	-4513
▁พื้นรองเท้า	-4514
▁draw	-4515
▁unit	-4516
idge	-4517
▁นัก	-4518
ทู	-4519
ยืน	-4520
ุษ	-4521
▁lik	-4522
จะได้	-4523
ปล่อย	-4524
▁breath	-4525
▁Chinese	-4526
ชมพู	-4527
แกร	-4528
reet	-4529
แฟน	-4530
สว่าง	-4531
แรงกระแทก	-4532
▁ที่มี	-4533
yc	-4534
oad	-4535
ables	-4536
▁polyester	-4537
ล้อม	-4538
▁started	-4539
รถยนต์	-4540
▁Cream	-4541
อัล	-4542
บวน	-4543
▁See	-4544
cise	-4545
▁bal	-4546
ดําเนินการ	-4547
▁gift	-4548
นี้เป็น	-4549
down	-4550
▁children	-4551
ทรวง	-4552
ทําให้คุณ	-4553
▁based	-4554
dy	-4555
▁Dry	-4556
▁Str	-4557
ของประเทศ	-4558
ทับ	-4559
▁Olymp	-4560
▁ผู้ใหญ่หมายเหตุ	-4561
มห	-4562
ฟอร์	-4563
▁Pad	-4564
เดียวกับ	-4565
CH	-4566
▁ไป	-4567
aking	-4568
ไมโคร	-4569
ทรัพย์	-4570
▁Kitty	-4571
ตกลง	-4572
▁neck	-4573
รี่	-4574
▁film	-4575
ใย	-4576
ไน	-4577
ชั่วโมง	-4578
บี	-4579
ades	-4580
เมตร	-4581
▁consider	-4582
ตราดอกเบ	-4583
ด้วยความ	-4584
▁สา	-4585
▁เหตุ	-4586
▁Width	-4587
aging	-4588
ตัวเลือก	-4589
ltra	-4590
้องกัน	-4591
▁public	-4592
!!!	-4593
ที่นั่ง	-4594
▁wonder	-4595
าระ	-4596
▁almost	-4597
หน่าย	-4598
▁นั่น	-4599
▁dress	-4600
▁types	-4601
PA	-4602
ออนไลน์	-4603
▁Purch	-4604
เกล	-4605
▁Will	-4606
อย่างต่อเนื่อง	-4607
ซึ	-4608
imited	-4609
รอยขีดข่วน	-4610
เหลือง	-4611
irl	-4612
เหมือนกัน	-4613
อย่างรวดเร็ว	-4614
ระบายอากาศได้ดี	-4615
นี้น	-4616
VD	-4617
จะต้อง	-4618
▁third	-4619
ตําแหน่ง	-4620
วัตถ	-4621
▁dust	-4622
▁ant	-4623
▁Perfect	-4624
MI	-4625
ตู้	-4626
เอสเตอร์	-4627
▁definitely	-4628
▁ask	-4629
▁exam	-4630
ultural	-4631
▁classic	-4632
imal	-4633
▁details	-4634
▁eye	-4635
cept	-4636
โฟน	-4637
▁adjustable	-4638
▁เศ	-4639
ently	-4640
not	-4641
astane	-4642
▁Sa	-4643
คะแนน	-4644
uary	-4645
กิโล	-4646
▁mesh	-4647
otion	-4648
▁ขอโทษ	-4649
duc	-4650
▁ens	-4651
เกี่ยวข้อง	-4652
อาณา	-4653
น่ะ	-4654
icle	-4655
lish	-4656
▁eng	-4657
▁นี่คือ	-4658
ชั้นใน	-4659
กฎหมาย	-4660
eter	-4661
ว่าการ	-4662
ที่แล้ว	-4663
▁AD	-4664
▁Free	-4665
ต่อก	-4666
▁pen	-4667
▁Haha	-4668
▁สั่ง	-4669
วัด	-4670
▁country	-4671
▁whole	-4672
▁cleaning	-4673
▁Nike	-4674
▁prof	-4675
เพื่อความ	-4676
จร	-4677
ให้เป็น	-4678
▁อุปกรณ์	-4679
หลุด	-4680
▁bud	-4681
สุนัข	-4682
imate	-4683
lling	-4684
▁mobile	-4685
แปล	-4686
▁sorry	-4687
ฝี	-4688
ยอม	-4689
มั่นคง	-4690
ใช้กับ	-4691
ไม่เคย	-4692
ค้นหา	-4693
▁วิธี	-4694
kg	-4695
▁ถ้าคุณ	-4696
สัมพันธ์	-4697
ทําไม	-4698
▁Japanese	-4699
aps	-4700
▁hist	-4701
▁ณ	-4702
เช่ารถ	-4703
hip	-4704
พลีเอสเตอร์	-4705
▁เข้า	-4706
OD	-4707
ป์	-4708
เว้น	-4709
▁waste	-4710
▁LE	-4711
ิตย์	-4712
เกือบ	-4713
▁เทคโนโลยี	-4714
▁Mar	-4715
ฤดูร้อน	-4716
มนตรี	-4717
▁Apple	-4718
▁Pol	-4719
ller	-4720
▁stand	-4721
เท่าไหร่	-4722
ธาน	-4723
▁effic	-4724
▁private	-4725
phone	-4726
พื้นผิว	-4727
เครื่องดื่ม	-4728
ลอน	-4729
▁Christ	-4730
▁global	-4731
▁ทั้งหมด	-4732
่มาก	-4733
จําหน่าย	-4734
ฟิก	-4735
antly	-4736
คอตตอน	-4737
▁ผลิตจากผ้า	-4738
work	-4739
ched	-4740
▁exact	-4741
▁volume	-4742
iber	-4743
กลับมา	-4744
เมื่อคุณ	-4745
▁ควร	-4746
▁lab	-4747
▁match	-4748
พอใจ	-4749
▁Over	-4750
▁GB	-4751
HER	-4752
▁policy	-4753
ทางเศรษฐกิจ	-4754
ORT	-4755
▁general	-4756
เทา	-4757
ซิล	-4758
ด้าม	-4759
▁smart	-4760
▁Us	-4761
เตือน	-4762
ony	-4763
▁chang	-4764
RA	-4765
สัย	-4766
ในตัว	-4767
จําเป็นต้อง	-4768
▁รหัส	-4769
▁แพ็ค	-4770
์ม	-4771
▁กล่อง	-4772
ray	-4773
ทีวี	-4774
หวาน	-4775
▁inte	-4776
อย่างอื่น	-4777
ฉบ	-4778
ไฟล์	-4779
▁fall	-4780
▁Em	-4781
▁da	-4782
▁unique	-4783
▁Our	-4784
▁wind	-4785
สิทธิ์	-4786
▁bright	-4787
มีความสุข	-4788
ฉาย	-4789
กําลังมองหา	-4790
เลคชั่น	-4791
ขนม	-4792
▁ต่อ	-4793
▁Yeah	-4794
chool	-4795
▁Korea	-4796
▁piece	-4797
มาน	-4798
นี้มี	-4799
▁coll	-4800
ส้น	-4801
ences	-4802
แดด	-4803
▁Keep	-4804
▁trade	-4805
izing	-4806
ฆษ	-4807
ring	-4808
ng	-4809
ball	-4810
าร์ท	-4811
ตะวันออก	-4812
สําร	-4813
ARD	-4814
สเต	-4815
▁aff	-4816
▁แขน	-4817
▁include	-4818
ills	-4819
บริโภค	-4820
บัค	-4821
▁Mid	-4822
▁Adjustable	-4823
▁Dur	-4824
วิดีโอ	-4825
ให้หน่อย	-4826
▁trad	-4827
VE	-4828
OC	-4829
ไม่มีอะไร	-4830
▁expl	-4831
▁การรับประกัน	-4832
▁คอ	-4833
โยน	-4834
กีฬา	-4835
ินาที	-4836
ipe	-4837
▁ป้องกัน	-4838
ัชน	-4839
ask	-4840
▁wide	-4841
สดชื่น	-4842
ด้วยค่ะ	-4843
▁song	-4844
ficult	-4845
▁included	-4846
ชิก	-4847
ื้อย	-4848
itary	-4849
ไหนดีคะ	-4850
แปรง	-4851
เรียนรู้	-4852
▁pockets	-4853
▁batteries	-4854
เร็จ	-4855
เทอร์	-4856
เพิ่มเติมจาก	-4857
▁tast	-4858
▁คลิก	-4859
▁สีขาว	-4860
ซักเครื่อง	-4861
ที่ช่วย	-4862
▁premium	-4863
▁difficult	-4864
▁inches	-4865
▁มาพร้อมกับ	-4866
ย้าย	-4867
ในวัน	-4868
ieve	-4869
▁wat	-4870
้วย	-4871
▁King	-4872
เปล่า	-4873
▁Well	-4874
▁test	-4875
▁สั	-4876
ร้าย	-4877
▁above	-4878
▁choose	-4879
▁showing	-4880
")	-4881
▁HP	-4882
action	-4883
ปรับระดับ	-4884
ั้ย	-4885
llig	-4886
แบ่ง	-4887
ร่วมกับ	-4888
สําเร็จ	-4889
▁rev	-4890
้วน	-4891
▁thank	-4892
BL	-4893
▁Auto	-4894
ราคาถูก	-4895
ที่เกิดขึ้น	-4896
สหรัฐอเมริกา	-4897
▁difference	-4898
สิ่งเหล่านี้	-4899
สนาน	-4900
▁Clean	-4901
กล่าวว่า	-4902
▁expanded	-4903
bers	-4904
aughter	-4905
ข้าม	-4906
สวม	-4907
้อยละ	-4908
พับ	-4909
▁actual	-4910
กลม	-4911
▁Back	-4912
▁hands	-4913
▁fan	-4914
ipment	-4915
และฉัน	-4916
▁UV	-4917
สวมใส่สบาย	-4918
iding	-4919
บกวน	-4920
ลูกน้อย	-4921
▁company	-4922
▁wood	-4923
▁Click	-4924
โปรแกรม	-4925
ทุกวัน	-4926
สินค้าน	-4927
้าอ	-4928
▁Comm	-4929
pping	-4930
▁หมึก	-4931
กับมัน	-4932
UL	-4933
สรรค์	-4934
▁program	-4935
▁called	-4936
แกน	-4937
ัชนี	-4938
▁stretch	-4939
▁ปาก	-4940
มาร	-4941
ที่น่าสนใจ	-4942
sc	-4943
ด้านนอก	-4944
ที่ร้าน	-4945
▁allows	-4946
เพราะมัน	-4947
ร่าง	-4948
raph	-4949
▁respectively	-4950
และไม่	-4951
▁prevent	-4952
ราศ	-4953
อย่างมาก	-4954
หวังว่า	-4955
นิว	-4956
คมชัด	-4957
▁streng	-4958
▁ให้ความ	-4959
▁development	-4960
▁cute	-4961
▁Ink	-4962
▁Mon	-4963
iters	-4964
▁Europe	-4965
โลหะ	-4966
อสเตร	-4967
▁AC	-4968
▁ทําจาก	-4969
เพลิดเพลิน	-4970
▁Paper	-4971
▁mor	-4972
▁พัน	-4973
ization	-4974
สูงขึ้น	-4975
▁Pack	-4976
เลีย	-4977
arent	-4978
ากล	-4979
ด้วยผ้า	-4980
▁consumption	-4981
▁ผู้หญิง	-4982
ติน	-4983
▁week	-4984
▁collection	-4985
โอกาสที่สวมใส่	-4986
▁Man	-4987
▁sal	-4988
▁plan	-4989
คณะ	-4990
iled	-4991
▁ปิด	-4992
▁takes	-4993
▁inch	-4994
ื่อก	-4995
อาทิตย์	-4996
ของมัน	-4997
ธง	-4998
▁cord	-4999
▁foam	-5000
▁built	-5001
ทําลาย	-5002
▁Dr	-5003
ที่ถูก	-5004
ซู	-5005
ขวด	-5006
▁bo	-5007
▁anyone	-5008
▁amount	-5009
▁tomorrow	-5010
▁ไม่ใช่	-5011
ล็อค	-5012
▁PC	-5013
▁Sw	-5014
อิสระ	-5015
▁Super	-5016
▁Go	-5017
ปัจจัย	-5018
▁North	-5019
idence	-5020
▁deliver	-5021
เลี้ย	-5022
▁charging	-5023
▁ฉันมี	-5024
ที่สําคัญ	-5025
ได้เป็น	-5026
ั๊ก	-5027
นาคม	-5028
▁video	-5029
▁FIL	-5030
้าอี้	-5031
โดยไม่	-5032
▁Short	-5033
เพิ่มขึ้นร้อยละ	-5034
ormal	-5035
▁Aust	-5036
รายงาน	-5037
เงินเฟ	-5038
ครบ	-5039
สกัด	-5040
aged	-5041
reci	-5042
▁Germ	-5043
for	-5044
usband	-5045
ฉบับ	-5046
ธ์	-5047
แวด	-5048
▁report	-5049
ามาก	-5050
irr	-5051
ฐานะ	-5052
▁โคร	-5053
▁โอ้	-5054
▁options	-5055
าวิ	-5056
----	-5057
▁Cent	-5058
▁NIKE	-5059
อิง	-5060
aves	-5061
จะถูก	-5062
ิช	-5063
แดน	-5064
จะส่ง	-5065
▁ลึก	-5066
▁deep	-5067
▁Windows	-5068
การขยายตัว	-5069
viron	-5070
gin	-5071
ืช	-5072
กอบ	-5073
▁went	-5074
ศัย	-5075
ุตบอล	-5076
เกี่ยวกับการ	-5077
opy	-5078
▁Up	-5079
ให้มี	-5080
▁mix	-5081
▁mind	-5082
สูญ	-5083
สีขาว	-5084
พรุ่งนี้	-5085
ลงตัว	-5086
▁issues	-5087
▁World	-5088
สแต	-5089
เบล	-5090
▁past	-5091
▁Years	-5092
▁seemed	-5093
PE	-5094
time	-5095
▁husband	-5096
ารา	-5097
แล้วก็	-5098
▁gener	-5099
▁Others	-5100
IF	-5101
▁dollars	-5102
▁ค่า	-5103
▁location	-5104
▁Rep	-5105
อาศัย	-5106
▁Kind	-5107
ด้วยราคา	-5108
หดตัว	-5109
▁ก่อน	-5110
▁local	-5111
ภาคเอกชน	-5112
▁receip	-5113
เฮ	-5114
ellow	-5115
▁ขาว	-5116
▁หนา	-5117
▁cloth	-5118
นโยบาย	-5119
โครงสร้าง	-5120
▁แต	-5121
มัก	-5122
▁appro	-5123
เจอร์	-5124
une	-5125
▁Support	-5126
▁stainless	-5127
man	-5128
ไม่กี่	-5129
▁และมี	-5130
▁While	-5131
บัญชี	-5132
▁sheets	-5133
▁CL	-5134
iday	-5135
คล้อง	-5136
▁stuff	-5137
กลายเป็น	-5138
แมน	-5139
▁version	-5140
สถา	-5141
▁OK	-5142
คลาย	-5143
▁Oil	-5144
▁bring	-5145
PP	-5146
▁PU	-5147
แวดล้อม	-5148
▁formula	-5149
▁Purchase	-5150
▁sat	-5151
▁ฮะฮ่า	-5152
ของสินค้า	-5153
ผ่านการ	-5154
▁ing	-5155
▁เศรษฐกิจ	-5156
uet	-5157
▁iron	-5158
ที่มัน	-5159
▁important	-5160
elt	-5161
▁picture	-5162
ช้อปสินค้าคุณภาพ	-5163
▁ประกอบ	-5164
▁เนื้อผ้า	-5165
อฟ	-5166
ี่ห	-5167
ทดสอบ	-5168
▁Prot	-5169
▁Style	-5170
▁weeks	-5171
ccess	-5172
▁conc	-5173
ก่อสร้าง	-5174
งบประมาณ	-5175
ในขณะที่	-5176
▁larg	-5177
▁Elect	-5178
▁ได้รับ	-5179
▁จน	-5180
▁Inst	-5181
▁Hel	-5182
ถิ่น	-5183
▁sun	-5184
▁Regular	-5185
▁DVD	-5186
▁son	-5187
คับ	-5188
▁SD	-5189
ช่วยเหลือ	-5190
นี้อ	-5191
▁deg	-5192
▁job	-5193
▁pair	-5194
กระดุม	-5195
▁dog	-5196
นาการ	-5197
▁levels	-5198
▁มีอะไร	-5199
▁ess	-5200
บอร์ด	-5201
▁Ital	-5202
▁แถ	-5203
ท็อป	-5204
hetic	-5205
▁pm	-5206
▁arrived	-5207
▁separ	-5208
▁Fil	-5209
▁เหล	-5210
▁casual	-5211
สนิ	-5212
▁la	-5213
ที่สาม	-5214
apter	-5215
ุนแรง	-5216
utions	-5217
ฝรั่งเศ	-5218
▁kitchen	-5219
▁vac	-5220
▁Phil	-5221
▁รวมถึง	-5222
▁devices	-5223
ปิน	-5224
tain	-5225
ructure	-5226
ขนส่ง	-5227
▁contact	-5228
อร์ท	-5229
ler	-5230
▁นี้	-5231
▁treat	-5232
เพียงพอ	-5233
▁pictures	-5234
▁แป	-5235
▁leg	-5236
▁booked	-5237
เทป	-5238
▁ทาง	-5239
▁Make	-5240
▁code	-5241
▁COM	-5242
estic	-5243
อ้าง	-5244
oon	-5245
oman	-5246
▁doing	-5247
สิ่งที่ฉัน	-5248
▁Che	-5249
CE	-5250
ี่ห้อ	-5251
ของเศรษฐกิจ	-5252
▁Dec	-5253
ยังไง	-5254
่มั้ย	-5255
ley	-5256
ประกาย	-5257
▁sleep	-5258
▁ครั้ง	-5259
ด้วยกัน	-5260
▁prefer	-5261
ไกล	-5262
▁Ser	-5263
▁areas	-5264
การรับประกัน	-5265
แสน	-5266
▁bor	-5267
▁More	-5268
ผิดพลาด	-5269
Bl	-5270
เงินเฟ้อ	-5271
▁webs	-5272
▁record	-5273
ลําโพง	-5274
เลื่อน	-5275
▁women	-5276
ilar	-5277
อีกมั้ยคะ	-5278
หมวด	-5279
▁คุณจะ	-5280
▁outside	-5281
▁น้ําหนักเบา	-5282
▁lay	-5283
พบว่า	-5284
rel	-5285
บํารุงผิว	-5286
ny	-5287
ners	-5288
▁Dri	-5289
▁expensive	-5290
เสื้อผ้า	-5291
▁EV	-5292
ทําอะไร	-5293
ฝรั่งเศส	-5294
▁moisture	-5295
▁bed	-5296
▁hear	-5297
▁Kindle	-5298
▁อายุ	-5299
come	-5300
▁playing	-5301
ude	-5302
▁สถ	-5303
▁กัน	-5304
▁absor	-5305
▁First	-5306
acks	-5307
ธรรมดา	-5308
▁ple	-5309
▁automatic	-5310
ียร์	-5311
▁ขณะ	-5312
พวกมัน	-5313
เบื่อ	-5314
สิ่งที่คุณ	-5315
▁มันมี	-5316
▁Par	-5317
▁anti	-5318
▁Thick	-5319
aced	-5320
รุนแรง	-5321
▁พบสินค้า	-5322
▁สินค้ามี	-5323
▁Any	-5324
▁ตามลําดับ	-5325
ทักษ	-5326
แส	-5327
ชีพ	-5328
นิ้ว	-5329
เข้ามา	-5330
▁often	-5331
ตลอดทั้ง	-5332
จารณ์	-5333
กรัม	-5334
▁Ant	-5335
▁tool	-5336
estions	-5337
▁office	-5338
".	-5339
ปัด	-5340
▁stat	-5341
นย	-5342
▁คุณภาพ	-5343
มากเกินไป	-5344
▁โครง	-5345
istic	-5346
▁Brand	-5347
▁offic	-5348
▁ingred	-5349
▁budget	-5350
ณรัฐ	-5351
uetooth	-5352
ความเร็ว	-5353
โหล	-5354
น่าสนใจ	-5355
▁Play	-5356
▁เทียบ	-5357
อินเดีย	-5358
▁exc	-5359
▁Hz	-5360
▁AND	-5361
▁เหมือน	-5362
▁ได้เลยค่ะ	-5363
▁feature	-5364
พืช	-5365
มากที่สุด	-5366
คอลเลคชั่น	-5367
GE	-5368
▁daughter	-5369
▁เฮ	-5370
▁pressure	-5371
ในการดูแลรักษา	-5372
▁AM	-5373
▁HE	-5374
▁known	-5375
ในเดือน	-5376
▁แม	-5377
▁ขยาย	-5378
แม้ว่า	-5379
▁morning	-5380
▁IP	-5381
▁บน	-5382
▁mic	-5383
▁wireless	-5384
ความปลอดภัย	-5385
fully	-5386
▁wish	-5387
▁TO	-5388
▁Now	-5389
alm	-5390
▁แก	-5391
ราศจาก	-5392
ว่ามันจะ	-5393
▁Navy	-5394
โฆษ	-5395
▁lines	-5396
มีปัญหา	-5397
▁plug	-5398
▁poly	-5399
AX	-5400
amin	-5401
ซา	-5402
นวล	-5403
artr	-5404
▁effort	-5405
เอกลักษณ์	-5406
▁EU	-5407
▁Shelf	-5408
vironment	-5409
▁matter	-5410
▁cushioning	-5411
กลิ่นหอม	-5412
▁file	-5413
▁เปิด	-5414
ห้า	-5415
▁Neck	-5416
บวนการ	-5417
li	-5418
▁exactly	-5419
dle	-5420
ered	-5421
▁เรียบ	-5422
▁entert	-5423
asting	-5424
▁Alright	-5425
เซ็น	-5426
แป้ง	-5427
▁NOT	-5428
EF	-5429
▁send	-5430
▁wall	-5431
▁ฯ	-5432
▁แห	-5433
▁deal	-5434
ตั้งค่า	-5435
▁receipt	-5436
ไส้	-5437
▁sharp	-5438
ละสี	-5439
▁States	-5440
▁board	-5441
▁PRO	-5442
▁NE	-5443
▁word	-5444
ctions	-5445
ปฏิบัติการ	-5446
อัตราดอกเบ	-5447
ราคาน้ํามัน	-5448
▁crust	-5449
สังคม	-5450
▁Ext	-5451
▁Men	-5452
Volume	-5453
▁document	-5454
สติก	-5455
▁fits	-5456
ประวัติศาสตร์	-5457
สนุกสนาน	-5458
กาศ	-5459
▁veh	-5460
หุ้ม	-5461
การส่งออก	-5462
amb	-5463
▁Def	-5464
ฟื้นตัว	-5465
▁Mem	-5466
ผลิตจากวัสดุ	-5467
แท้จริง	-5468
ชิ้นส่วน	-5469
▁ปัญ	-5470
▁maybe	-5471
สต์	-5472
▁option	-5473
▁Ass	-5474
โดยตรง	-5475
▁max	-5476
มาก่อน	-5477
aptop	-5478
พริ	-5479
โรค	-5480
ในอีก	-5481
▁ones	-5482
เกต	-5483
ลฯ	-5484
▁Non	-5485
ระเบียบ	-5486
าลัย	-5487
▁Look	-5488
▁military	-5489
ule	-5490
ซึ่งเป็น	-5491
ใส่น	-5492
inner	-5493
▁Then	-5494
▁five	-5495
▁Office	-5496
▁seat	-5497
▁allow	-5498
▁pieces	-5499
▁says	-5500
▁break	-5501
ที่นั่น	-5502
เลี้ยง	-5503
▁แต่ง	-5504
▁Economic	-5505
ิโ	-5506
สิง	-5507
▁เด็ก	-5508
▁midsole	-5509
▁By	-5510
เอ็ม	-5511
ให้บริการ	-5512
▁เพิ่มขึ้น	-5513
ผ้าตาข่าย	-5514
แช่	-5515
▁gets	-5516
ามา	-5517
▁cold	-5518
IO	-5519
▁Special	-5520
▁wearing	-5521
ท้อน	-5522
เบิก	-5523
อาการ	-5524
▁AA	-5525
iced	-5526
▁straps	-5527
ART	-5528
▁Mel	-5529
▁travel	-5530
ims	-5531
▁GDP	-5532
▁Hey	-5533
เรียบง่าย	-5534
ricultural	-5535
▁Starbucks	-5536
นาจ	-5537
▁sold	-5538
ibility	-5539
umble	-5540
▁cell	-5541
clus	-5542
ซักผ้า	-5543
▁ตู้	-5544
▁ถูก	-5545
แปลก	-5546
▁daily	-5547
จากประเทศ	-5548
por	-5549
มากค่ะ	-5550
ปิ้ง	-5551
▁present	-5552
ลดลงร้อยละ	-5553
▁Comfortable	-5554
▁Pan	-5555
▁hyd	-5556
▁tre	-5557
▁seen	-5558
▁taking	-5559
▁ฯลฯ	-5560
▁metal	-5561
ของเล่น	-5562
บ่าย	-5563
สถานการณ์	-5564
ฝีปาก	-5565
เครื่องมือ	-5566
ขึ้นอยู่กับ	-5567
▁understand	-5568
ges	-5569
min	-5570
ียดนาม	-5571
▁loves	-5572
เข้าร่วม	-5573
▁โดยมี	-5574
มิตร	-5575
หนี้	-5576
ีนส์	-5577
▁waist	-5578
▁compact	-5579
รีด	-5580
เลิก	-5581
▁Sol	-5582
▁dro	-5583
อุป	-5584
หมู่	-5585
ashion	-5586
ประมาณการ	-5587
▁activ	-5588
มนุษ	-5589
วรรษ	-5590
พิจาร	-5591
▁Plastic	-5592
เป้า	-5593
แหละ	-5594
▁vent	-5595
▁Outlook	-5596
off	-5597
อิต	-5598
เตรียม	-5599
imm	-5600
กรุง	-5601
สร้างความ	-5602
ental	-5603
▁ออกแบบ	-5604
▁พันล้าน	-5605
รูปภาพ	-5606
สมาชิก	-5607
ื้อยืด	-5608
▁Class	-5609
▁action	-5610
▁stylish	-5611
▁MB	-5612
▁Top	-5613
▁Have	-5614
ใช่มั้ย	-5615
ทา	-5616
▁Ac	-5617
rest	-5618
คล้าย	-5619
เหง	-5620
nthetic	-5621
สู้	-5622
ปรก	-5623
ซีดี	-5624
ได้ถึง	-5625
ECT	-5626
เช็ด	-5627
นยํา	-5628
▁shipping	-5629
สึ	-5630
izes	-5631
รัง	-5632
ises	-5633
▁overall	-5634
เจาะ	-5635
▁Trans	-5636
fo	-5637
▁SM	-5638
อย่างไร	-5639
Wh	-5640
คาย	-5641
ใส่ของ	-5642
▁secure	-5643
nov	-5644
ถัง	-5645
เน็ต	-5646
วิจัย	-5647
▁Comes	-5648
BS	-5649
ตื่นเต้น	-5650
สตาร์บัค	-5651
",	-5652
▁par	-5653
▁early	-5654
ผลล	-5655
▁cou	-5656
มากๆ	-5657
รสชาติ	-5658
▁Inte	-5659
▁cooking	-5660
สายไฟ	-5661
โฆษณา	-5662
▁poor	-5663
▁Airport	-5664
back	-5665
▁Foam	-5666
ฟุตบอล	-5667
▁delic	-5668
มอเตอร์	-5669
อาณาจักร	-5670
มากและ	-5671
▁Cro	-5672
เลี่ยง	-5673
พวกเรา	-5674
ให้ช่วย	-5675
อย่างเดียว	-5676
▁Dimension	-5677
Th	-5678
oid	-5679
โฟม	-5680
▁idea	-5681
▁โด	-5682
head	-5683
วางแผน	-5684
ปราก	-5685
▁page	-5686
▁pickup	-5687
ที่เหมาะสม	-5688
▁party	-5689
▁Smart	-5690
▁inflation	-5691
ฟู	-5692
▁AL	-5693
ยุค	-5694
กลัว	-5695
▁SU	-5696
การเงิน	-5697
อย่างเป็น	-5698
บดี	-5699
▁firm	-5700
บังคับ	-5701
▁keeps	-5702
สํานักงาน	-5703
ทักษะ	-5704
▁เขียน	-5705
▁ทําความสะอาด	-5706
รั	-5707
atches	-5708
แวร์	-5709
▁fur	-5710
▁reco	-5711
▁Full	-5712
▁save	-5713
▁?	-5714
mas	-5715
ลิตร	-5716
โดยไม่ต้อง	-5717
▁Cal	-5718
กระทั่ง	-5719
▁cheese	-5720
อย่างน้อย	-5721
▁drive	-5722
น้อยกว่า	-5723
น้ําตาล	-5724
ด้านข้าง	-5725
▁everyday	-5726
acter	-5727
▁PA	-5728
รู้จัก	-5729
เข้าถึง	-5730
▁website	-5731
เปรียบ	-5732
▁happened	-5733
▁Mal	-5734
▁ey	-5735
อีกด้วย	-5736
uly	-5737
▁เง	-5738
เน้น	-5739
ตามที่	-5740
lligent	-5741
▁ของคุณ	-5742
stick	-5743
▁security	-5744
ปลั๊ก	-5745
แหล่ง	-5746
▁single	-5747
▁แฟ	-5748
ตาย	-5749
▁Wash	-5750
มันเป็น	-5751
▁เคลือบ	-5752
▁LCD	-5753
▁Mix	-5754
พื้นรองเท้า	-5755
!(	-5756
ไฮ	-5757
▁eat	-5758
▁state	-5759
แรม	-5760
ผลลัพ	-5761
ริมฝีปาก	-5762
uum	-5763
▁pepper	-5764
▁discount	-5765
load	-5766
สื่อ	-5767
ทั	-5768
สล	-5769
▁decor	-5770
▁ปากกา	-5771
▁สร	-5772
▁walk	-5773
▁reduce	-5774
เผย	-5775
▁link	-5776
▁late	-5777
▁indic	-5778
▁descri	-5779
คดี	-5780
ฉันก็	-5781
รวมถึง	-5782
สวน	-5783
▁uses	-5784
ผลลัพธ์	-5785
▁gave	-5786
นาฬิกา	-5787
หนึ่งของ	-5788
▁Durable	-5789
▁washing	-5790
▁recovery	-5791
▁mar	-5792
ทําได้	-5793
▁round	-5794
▁ไม่ว่าจะ	-5795
HT	-5796
คู	-5797
โพก	-5798
▁Plan	-5799
ลําลอง	-5800
บางส่วน	-5801
ino	-5802
▁leave	-5803
▁คําแนะนํา	-5804
▁Gu	-5805
▁Brit	-5806
▁ความจุ	-5807
bed	-5808
ตราย	-5809
esome	-5810
ประตู	-5811
▁Plus	-5812
▁เท่า	-5813
▁Enjoy	-5814
ให้เห็น	-5815
▁นับจากวันผลิต	-5816
สกปรก	-5817
สงสัย	-5818
▁season	-5819
ได้ไหม	-5820
▁Olympics	-5821
▁อัตรา	-5822
หนาว	-5823
▁includes	-5824
▁ผู้หญิงอายุ	-5825
▁issue	-5826
สป	-5827
▁mov	-5828
ได้ยิน	-5829
▁สน	-5830
▁shoes	-5831
▁ปัญหา	-5832
▁ur	-5833
▁equipment	-5834
-||	-5835
ักษร	-5836
▁school	-5837
ผลให้	-5838
สิบ	-5839
สังเคราะห์	-5840
มีประสิทธิภาพ	-5841
ผ้าน	-5842
▁ไม่เป็น	-5843
▁reduc	-5844
ฉาก	-5845
ลวดลาย	-5846
การออกแบบ	-5847
ให้นะคะ	-5848
ไม่มีปัญหา	-5849
▁--	-5850
ผลไม้	-5851
▁stop	-5852
สองสาม	-5853
itting	-5854
▁specific	-5855
โพลีเอสเตอร์	-5856
าค	-5857
มาส์	-5858
ว่าร	-5859
QU	-5860
ทัดรัด	-5861
แค่ไหน	-5862
▁throughout	-5863
akers	-5864
ฟองน้ํา	-5865
ีกเลี่ยง	-5866
ยน้ํา	-5867
▁..	-5868
▁gold	-5869
▁March	-5870
▁goes	-5871
duction	-5872
แม่นยํา	-5873
cut	-5874
ข้น	-5875
อนุญา	-5876
▁เส้น	-5877
▁personal	-5878
ires	-5879
pose	-5880
EAR	-5881
รัส	-5882
ใช้ใน	-5883
▁trip	-5884
พวกนี้	-5885
เพศ	-5886
▁war	-5887
▁Thickness	-5888
พฤ	-5889
▁Port	-5890
▁ปุ่ม	-5891
fortun	-5892
▁decre	-5893
▁Remark	-5894
▁ไม่มีปัญหา	-5895
▁course	-5896
▁Bluetooth	-5897
▁resistant	-5898
คาร์	-5899
นับ	-5900
▁Sound	-5901
ที่ดีกว่า	-5902
ef	-5903
▁arm	-5904
▁bank	-5905
▁laptop	-5906
▁extreme	-5907
▁Mr	-5908
▁Was	-5909
▁Techn	-5910
หนีบ	-5911
อกลม	-5912
▁fre	-5913
▁drop	-5914
ขึ้นมา	-5915
ล่าสุด	-5916
วิจารณ์	-5917
▁appear	-5918
encil	-5919
nection	-5920
▁EX	-5921
ได้ทุก	-5922
อาจเป็น	-5923
nds	-5924
พัง	-5925
▁อัปเปอร์	-5926
gar	-5927
oni	-5928
rial	-5929
urdy	-5930
เมนู	-5931
▁ball	-5932
การค้า	-5933
ไม่เป็น	-5934
▁running	-5935
▁ขยายตัว	-5936
จิน	-5937
medi	-5938
▁given	-5939
ปรับปรุง	-5940
▁elastane	-5941
▁zip	-5942
ญแจ	-5943
▁cred	-5944
▁Level	-5945
ระยะเวลา	-5946
ได้อย่างง่ายดาย	-5947
▁band	-5948
ซึม	-5949
หลอด	-5950
ออสเตร	-5951
▁Rubber	-5952
▁นิ้วความยาว	-5953
▁yes	-5954
ประกาศ	-5955
และข้อ	-5956
▁movement	-5957
▁อะ	-5958
บน้ํา	-5959
ยุทธ	-5960
▁impact	-5961
▁เหรียญ	-5962
▁ล้านบาท	-5963
▁)	-5964
โอน	-5965
นตรี	-5966
▁flexible	-5967
▁ฉันคิดว่า	-5968
▁international	-5969
▁MP	-5970
ล็อก	-5971
▁Lip	-5972
▁Control	-5973
▁charger	-5974
ตัวเครื่อง	-5975
ุป	-5976
▁อิน	-5977
ียก	-5978
ําลัง	-5979
▁safety	-5980
นุ่มสบาย	-5981
▁คิด	-5982
จาน	-5983
▁begin	-5984
by	-5985
นําไป	-5986
ภายนอก	-5987
▁services	-5988
▁Multi	-5989
▁compet	-5990
▁feeling	-5991
ไปถึง	-5992
▁domestic	-5993
ภาคร	-5994
แนะนําให้	-5995
▁completely	-5996
ข่าว	-5997
โหลด	-5998
▁resistance	-5999
คราบ	-6000
▁liqu	-6001
▁means	-6002
▁become	-6003
▁const	-6004
▁grand	-6005
เคมี	-6006
▁couple	-6007
▁ความเร็ว	-6008
iency	-6009
ohn	-6010
▁wel	-6011
▁rese	-6012
▁thin	-6013
ศจ	-6014
▁certain	-6015
เช็ค	-6016
ควรจะ	-6017
▁Which	-6018
ท่าน	-6019
▁HDMI	-6020
ทําอาหาร	-6021
ศิลปะ	-6022
▁rather	-6023
++	-6024
ส่วนตัว	-6025
▁measures	-6026
PHONE	-6027
ู่นะคะ	-6028
▁ความสูง	-6029
กระทรวง	-6030
etic	-6031
โดยรวม	-6032
▁Fin	-6033
▁easier	-6034
▁movies	-6035
.):	-6036
▁Get	-6037
เสี่ยง	-6038
▁told	-6039
แมว	-6040
▁IS	-6041
็อต	-6042
like	-6043
▁compartment	-6044
ํง	-6045
▁เล่ม	-6046
▁wait	-6047
▁ผิว	-6048
▁click	-6049
.•	-6050
ัพพ	-6051
กําจัด	-6052
▁wrong	-6053
▁friends	-6054
ขั้นตอน	-6055
พิจารณา	-6056
▁กระดาษ	-6057
พัน	-6058
▁OS	-6059
▁PM	-6060
ตลับ	-6061
orted	-6062
▁hour	-6063
ounter	-6064
ําเข้า	-6065
angu	-6066
ําระ	-6067
▁เปล	-6068
itical	-6069
วัฒ	-6070
▁neg	-6071
▁Some	-6072
ื่อม	-6073
บางครั้ง	-6074
acy	-6075
▁di	-6076
้ยละ	-6077
▁จุด	-6078
อเมซอน	-6079
คืนนี้	-6080
อะไรดีคะ	-6081
▁example	-6082
ที่ได้รับ	-6083
wise	-6084
ission	-6085
กิโลกรัม	-6086
ตวั	-6087
ผลิตจากผ้า	-6088
▁Board	-6089
▁goods	-6090
chan	-6091
คุก	-6092
oost	-6093
▁pull	-6094
รับรอง	-6095
ร่วมมือ	-6096
▁describ	-6097
ภรร	-6098
▁select	-6099
fortunately	-6100
▁young	-6101
หลายปี	-6102
วัตกรรม	-6103
▁height	-6104
sp	-6105
iple	-6106
การลงทุน	-6107
▁acceler	-6108
▁Lightweight	-6109
อดี	-6110
เวียดนาม	-6111
St	-6112
ใช้น้ํา	-6113
▁land	-6114
เบิล	-6115
▁beh	-6116
ขึ้นไป	-6117
ทิศทาง	-6118
▁commun	-6119
มิน	-6120
เข้าสู่	-6121
▁พิซซ่า	-6122
IZ	-6123
ชีส	-6124
▁similar	-6125
▁Clear	-6126
▁green	-6127
บริหาร	-6128
▁reach	-6129
▁Summer	-6130
▁American	-6131
▁เวลา	-6132
▁learn	-6133
▁audio	-6134
เตา	-6135
akes	-6136
▁ทุก	-6137
▁shall	-6138
สอ	-6139
แล้วนะคะ	-6140
ฉล	-6141
เจล	-6142
▁Poly	-6143
AP	-6144
หก	-6145
▁Cr	-6146
โลโก้	-6147
▁Case	-6148
หมายถึง	-6149
ole	-6150
▁ยิน	-6151
▁capital	-6152
▁ขนาดเครื่อง	-6153
ค่าใช้จ่าย	-6154
หัก	-6155
▁likely	-6156
าลี	-6157
ล้ํา	-6158
▁Sec	-6159
ใบหน้า	-6160
▁contain	-6161
▁thinking	-6162
คล่อง	-6163
▁manufacturing	-6164
▁Cor	-6165
เทียม	-6166
▁washable	-6167
▁conditions	-6168
IP	-6169
บางคน	-6170
▁giving	-6171
▁dest	-6172
▁medium	-6173
เมื่อฉัน	-6174
ติดต่อ	-6175
พวกเขาจะ	-6176
▁bul	-6177
ได้ทั้ง	-6178
▁Ev	-6179
▁งาน	-6180
▁loved	-6181
▁สวัสดี	-6182
▁แต่ไม่	-6183
▁Fabric	-6184
▁Of	-6185
isc	-6186
ยังไม่	-6187
▁itself	-6188
เพียงแค่	-6189
ชัก	-6190
ผนัง	-6191
▁BLU	-6192
▁directly	-6193
oe	-6194
aff	-6195
▁heavy	-6196
▁breathable	-6197
ประดับ	-6198
นี้จะ	-6199
ในตลาด	-6200
▁theater	-6201
▁occ	-6202
ply	-6203
ตุ๊ก	-6204
น่าจะ	-6205
ปกครอง	-6206
▁stories	-6207
▁vol	-6208
▁outd	-6209
▁Colors	-6210
ว่ายน้ํา	-6211
แถบ	-6212
▁ซี	-6213
▁extract	-6214
▁หนังสือ	-6215
ที่ทําให้	-6216
▁Bu	-6217
▁เติม	-6218
จากร้อยละ	-6219
ผ่อนคลาย	-6220
▁fa	-6221
รถไฟ	-6222
โอลิมปิกฤดูร้อน	-6223
▁Med	-6224
▁wife	-6225
ograph	-6226
▁hop	-6227
▁coated	-6228
รบกวน	-6229
▁ทน	-6230
ivid	-6231
▁สถาน	-6232
▁noise	-6233
IA	-6234
หวัด	-6235
หาคม	-6236
ท้องถิ่น	-6237
▁ingredients	-6238
aid	-6239
▁จากนั้น	-6240
▁เบอร์	-6241
ากร	-6242
iture	-6243
▁rice	-6244
▁highly	-6245
▁essential	-6246
อักษร	-6247
หากคุณ	-6248
▁tight	-6249
▁headphones	-6250
▁ปริมาณสุทธิ	-6251
ริ้ว	-6252
▁official	-6253
▁THE	-6254
สําหรับผู้	-6255
▁address	-6256
แฮ	-6257
๎า	-6258
ลงบน	-6259
โดยใช้	-6260
แขวน	-6261
▁talk	-6262
ตาร	-6263
aser	-6264
อาคาร	-6265
▁แกรม	-6266
สแตนเลส	-6267
▁respons	-6268
ปรากฏ	-6269
กะทัดรัด	-6270
▁frag	-6271
amsung	-6272
จากนั้น	-6273
▁Austral	-6274
อน้ํา	-6275
็ท	-6276
▁ago	-6277
กรรมการ	-6278
▁cannot	-6279
▁แม้ว่า	-6280
เติ	-6281
ไหล่	-6282
▁กรณี	-6283
ได้ว่า	-6284
▁มาตรา	-6285
ภาครัฐ	-6286
▁Memory	-6287
▁choice	-6288
▁fac	-6289
itted	-6290
ต่ํากว่า	-6291
โทน	-6292
มีแนวโน้ม	-6293
▁recent	-6294
ached	-6295
ภรรยา	-6296
แย่มาก	-6297
ไม่ให้	-6298
aming	-6299
ระคาย	-6300
▁From	-6301
ูมิเนียม	-6302
ใบมีด	-6303
▁remov	-6304
▁replacement	-6305
เหลว	-6306
nded	-6307
การสั่งซื้อ	-6308
▁PH	-6309
ผู้อ	-6310
▁apply	-6311
▁sweet	-6312
คนิค	-6313
▁dark	-6314
▁frame	-6315
▁scratch	-6316
▁foc	-6317
ource	-6318
ประชาชน	-6319
PU	-6320
XL	-6321
kyo	-6322
จ้าง	-6323
อล์	-6324
▁blue	-6325
กระจ่าง	-6326
ร่างกาย	-6327
▁powerful	-6328
▁yourself	-6329
▁sett	-6330
▁popular	-6331
▁environment	-6332
็ป	-6333
เลือ	-6334
แช	-6335
อาร์	-6336
▁law	-6337
▁held	-6338
▁employ	-6339
essional	-6340
▁Cup	-6341
▁คาด	-6342
while	-6343
เสียด	-6344
▁live	-6345
▁collect	-6346
▁_	-6347
eral	-6348
▁Aug	-6349
ียร	-6350
▁Speed	-6351
เป้าหมาย	-6352
▁Work	-6353
▁นาทีค่ะ	-6354
▁star	-6355
▁true	-6356
▁advert	-6357
CL	-6358
ผัก	-6359
อาร	-6360
▁continued	-6361
set	-6362
▁op	-6363
airs	-6364
เมื่อเทียบกับ	-6365
▁Slee	-6366
▁sched	-6367
▁foreign	-6368
อุด	-6369
▁exer	-6370
ทอ	-6371
ผู้น	-6372
ในที่	-6373
▁Order	-6374
เดียวกันของปี	-6375
▁opening	-6376
อํานาจ	-6377
bum	-6378
fit	-6379
หมา	-6380
▁mean	-6381
ราชอาณาจักร	-6382
อนุญาต	-6383
▁คุณภาพดี	-6384
อาชีพ	-6385
▁everyone	-6386
เกียว	-6387
▁Gold	-6388
▁research	-6389
ASE	-6390
▁National	-6391
ปรับตัวดีขึ้น	-6392
▁tea	-6393
ก็คือ	-6394
▁pract	-6395
rast	-6396
▁สิน	-6397
▁พวกเข	-6398
ส่งเสริม	-6399
ัดส่วน	-6400
▁Where	-6401
▁engine	-6402
▁Steel	-6403
▁declined	-6404
▁closure	-6405
rees	-6406
▁fig	-6407
othes	-6408
ครอบคลุม	-6409
▁Automatic	-6410
▁Rec	-6411
▁tip	-6412
าศาสตร์	-6413
▁across	-6414
กประสงค์	-6415
แรกของปี	-6416
▁od	-6417
▁logo	-6418
▁although	-6419
ือย	-6420
▁ผม	-6421
ที่บ้าน	-6422
เวลานาน	-6423
▁delivers	-6424
แพ้	-6425
ที่แตกต่างกัน	-6426
เนอร์	-6427
▁dollar	-6428
เคือง	-6429
▁blade	-6430
ื่อนไข	-6431
กลา	-6432
เกณฑ์	-6433
▁แสดง	-6434
▁Front	-6435
sl	-6436
▁circ	-6437
▁ideal	-6438
▁taste	-6439
▁damage	-6440
▁SK	-6441
▁liquid	-6442
▁Even	-6443
ั้งเดิม	-6444
ิ้ล	-6445
▁Composition	-6446
ที่ต้อง	-6447
แฟ้ม	-6448
ATION	-6449
▁sugg	-6450
วัตถุ	-6451
▁follow	-6452
▁sturdy	-6453
ช่วงเวลา	-6454
ตุ้น	-6455
▁Bra	-6456
▁Sep	-6457
เลนส์	-6458
▁additional	-6459
มีความยืดหยุ่น	-6460
▁je	-6461
▁ฉันอยาก	-6462
เรียบเนียน	-6463
▁Sy	-6464
ใช้อ	-6465
▁lasts	-6466
▁Leather	-6467
อัด	-6468
▁San	-6469
อินโด	-6470
▁หนัง	-6471
ใช่มั้ยคะ	-6472
__	-6473
ซาน	-6474
wards	-6475
ทั่วโลก	-6476
และเป็น	-6477
▁transfer	-6478
ze	-6479
เข็ม	-6480
inger	-6481
▁normal	-6482
ปู	-6483
ato	-6484
สอด	-6485
เหงื่อ	-6486
▁สีสัน	-6487
ควรระวัง	-6488
▁further	-6489
ัสน	-6490
▁Viet	-6491
เข้มข้น	-6492
▁history	-6493
ซ้าย	-6494
าวิทย	-6495
▁sleeves	-6496
อโร	-6497
▁Lock	-6498
▁connection	-6499
ม่ํา	-6500
▁lid	-6501
ไม่มีการ	-6502
▁Import	-6503
มากยิ่งขึ้น	-6504
เปล่ง	-6505
PER	-6506
rome	-6507
ห่าง	-6508
ผู้เขียน	-6509
▁Samsung	-6510
▁feet	-6511
▁message	-6512
ศาล	-6513
▁เหตุการณ์	-6514
▁bottom	-6515
หลายครั้ง	-6516
▁โอกาส	-6517
▁โต	-6518
iant	-6519
หายไป	-6520
▁looked	-6521
▁มันไม่	-6522
▁อีกทั้ง	-6523
▁Bang	-6524
▁Sing	-6525
▁compan	-6526
▁แท	-6527
กุญแจ	-6528
▁coming	-6529
In	-6530
amide	-6531
raight	-6532
ww	-6533
▁balance	-6534
erve	-6535
▁II	-6536
▁John	-6537
▁feels	-6538
▁Christmas	-6539
quality	-6540
ดนตรี	-6541
▁Mark	-6542
▁plot	-6543
amine	-6544
แลก	-6545
▁Met	-6546
▁graph	-6547
onse	-6548
▁ตัดเย็บ	-6549
▁COMP	-6550
▁grew	-6551
เวน	-6552
รูปทรง	-6553
artridge	-6554
สตาร์บัคส์	-6555
าวิทยาลัย	-6556
ตี้	-6557
▁ลดลง	-6558
▁search	-6559
แตะ	-6560
▁girl	-6561
▁region	-6562
ศาสน	-6563
เปอร์	-6564
ประทับ	-6565
▁เสริม	-6566
ites	-6567
▁Av	-6568
entle	-6569
▁glad	-6570
▁heel	-6571
อันตราย	-6572
▁coating	-6573
ตะวันตก	-6574
แม่เหล็ก	-6575
สะท้อน	-6576
▁PR	-6577
▁Anti	-6578
▁Char	-6579
illed	-6580
▁Body	-6581
สะด	-6582
สนิม	-6583
▁shirt	-6584
TI	-6585
คุย	-6586
▁พิมพ์	-6587
▁printed	-6588
▁coverage	-6589
▁*	-6590
โจม	-6591
▁ยู	-6592
▁welcome	-6593
▁ตั้งแต่	-6594
▁brush	-6595
▁remove	-6596
▁setting	-6597
สังเกต	-6598
ร้านอาหาร	-6599
▁agricultural	-6600
คลาสสิก	-6601
▁Wireless	-6602
ช่วยให้คุณ	-6603
arget	-6604
โดยสาร	-6605
ก่อนที่จะ	-6606
แขนยาว	-6607
▁motor	-6608
ใช้เป็น	-6609
box	-6610
ในขณะ	-6611
▁dinner	-6612
ซี่	-6613
soci	-6614
▁complex	-6615
▁International	-6616
คัด	-6617
อันดับ	-6618
ว่าจะมี	-6619
บร	-6620
ไอน้ํา	-6621
ได้เป็นอย่างดี	-6622
▁games	-6623
▁group	-6624
ม่ําเสมอ	-6625
ระหว่างการ	-6626
หลับ	-6627
▁เสียง	-6628
▁Screen	-6629
ความสามารถ	-6630
ปัง	-6631
▁ฟัง	-6632
▁เก็	-6633
▁โรง	-6634
พูดถึง	-6635
▁Designed	-6636
ราง	-6637
อ่อนโยน	-6638
อ่านหนังสือ	-6639
▁bottle	-6640
▁results	-6641
ขยะ	-6642
▁เซน	-6643
change	-6644
ตัวนี้	-6645
▁gar	-6646
เรียกว่า	-6647
▁maximum	-6648
▁ประหยัด	-6649
สีแดง	-6650
เก้าอี้	-6651
ความกว้าง	-6652
ชอบมัน	-6653
ails	-6654
▁Round	-6655
af	-6656
ival	-6657
▁มูล	-6658
แพทย์	-6659
▁post	-6660
อาว	-6661
อเน	-6662
▁clip	-6663
คิดว่ามัน	-6664
ใช้งานง่าย	-6665
ney	-6666
rig	-6667
▁vib	-6668
▁แน่น	-6669
▁sides	-6670
สําหรับเด็ก	-6671
▁micro	-6672
▁ไม่ค่ะ	-6673
สร้างสรรค์	-6674
คัน	-6675
โปร์	-6676
ger	-6677
unction	-6678
▁Stainless	-6679
icone	-6680
โดยการ	-6681
▁Vietnam	-6682
ตนเอง	-6683
เกาหลีเหนือ	-6684
abin	-6685
▁India	-6686
▁MM	-6687
▁immedi	-6688
ชิง	-6689
.%	-6690
เจ็บ	-6691
พันธุ	-6692
▁driver	-6693
▁ข้อมูล	-6694
▁colours	-6695
▁lens	-6696
▁fix	-6697
▁write	-6698
ตัวอย่าง	-6699
▁moistur	-6700
บั้ม	-6701
▁ภาพ	-6702
ยีนส์	-6703
ancial	-6704
▁applications	-6705
ASS	-6706
▁Brown	-6707
▁ได้แก่	-6708
ครู่นะคะ	-6709
แห่งชาติ	-6710
▁วัสดุที่ใช้	-6711
ding	-6712
▁guess	-6713
▁FOR	-6714
azing	-6715
▁Head	-6716
▁โดยรวม	-6717
▁Motor	-6718
ผสมผสาน	-6719
ยังสามารถ	-6720
▁anywhere	-6721
uction	-6722
สถานี	-6723
น้ํายา	-6724
อากาศยาน	-6725
oogle	-6726
resent	-6727
ที่เคย	-6728
แม้แต่	-6729
▁Tokyo	-6730
▁num	-6731
สําหรับใส่	-6732
▁pat	-6733
ศูนย์กลาง	-6734
ระคายเคือง	-6735
▁pepperoni	-6736
ighter	-6737
สภาพผิว	-6738
asure	-6739
รอ้ยละ	-6740
▁printing	-6741
ที่พวกเขา	-6742
bon	-6743
มณ์	-6744
เซลล์	-6745
▁August	-6746
โรงเรียน	-6747
กระบวนการ	-6748
▁strength	-6749
ครัวเรือน	-6750
ป้องกันการ	-6751
oom	-6752
▁cleans	-6753
▁Intelligent	-6754
hold	-6755
▁position	-6756
▁Ag	-6757
▁CON	-6758
clusive	-6759
คโปร์	-6760
เบิกจ่าย	-6761
AST	-6762
atur	-6763
อันนี้	-6764
▁langu	-6765
พอดีกับ	-6766
oves	-6767
นีเซีย	-6768
PI	-6769
▁ใช้งานได้	-6770
ล้อ	-6771
เท่	-6772
▁sock	-6773
สั่งพิซซ่า	-6774
pi	-6775
กาว	-6776
ยับ	-6777
▁tit	-6778
สารฟอกขาว	-6779
IDAS	-6780
ห่วง	-6781
เครือ	-6782
urning	-6783
ในห้อง	-6784
▁appreci	-6785
▁resolution	-6786
สเป	-6787
▁OF	-6788
uation	-6789
▁confidence	-6790
ในเวลา	-6791
▁บางที	-6792
ibly	-6793
▁collar	-6794
▁interested	-6795
▁ซอง	-6796
▁Mesh	-6797
dom	-6798
thern	-6799
▁ในเดือน	-6800
สาธารณรัฐ	-6801
เครื่องพิมพ์	-6802
่ํา	-6803
ให้การ	-6804
▁rates	-6805
▁functions	-6806
▁powder	-6807
ปน	-6808
ยากที่จะ	-6809
หยิบ	-6810
นธรรม	-6811
อร่อย	-6812
ulated	-6813
▁สร้าง	-6814
อีกต่อไป	-6815
▁ris	-6816
ในระดับ	-6817
▁ADIDAS	-6818
▁gen	-6819
▁terr	-6820
itional	-6821
▁mention	-6822
my	-6823
▁ชะลอ	-6824
ที่คาด	-6825
สมาร์ท	-6826
ได้นาน	-6827
▁innov	-6828
จิตอล	-6829
▁tape	-6830
ตนาการ	-6831
หลง	-6832
▁traction	-6833
▁Overall	-6834
อยู	-6835
iner	-6836
▁Del	-6837
ยี่ห้อ	-6838
▁sense	-6839
หน่อยค่ะ	-6840
▁replace	-6841
▁require	-6842
▁นา	-6843
▁Bar	-6844
ระหว่างประเทศ	-6845
▁points	-6846
เก๋	-6847
ายัง	-6848
▁cat	-6849
▁emb	-6850
ได้มั้ย	-6851
▁digital	-6852
enn	-6853
▁Two	-6854
พัด	-6855
▁Cin	-6856
รู้สึ	-6857
▁switch	-6858
▁ร้อยละ	-6859
roid	-6860
▁bene	-6861
ติดตาม	-6862
เก็ต	-6863
apore	-6864
▁fashion	-6865
ข้อม	-6866
ต่อกับ	-6867
▁Includ	-6868
OU	-6869
หมอน	-6870
▁Spec	-6871
พัฒนาการ	-6872
▁shoulder	-6873
▁extremely	-6874
▁structure	-6875
ีล	-6876
▁aren	-6877
▁mode	-6878
กระจ่างใส	-6879
ดวงตา	-6880
สถาบัน	-6881
ไปแล้ว	-6882
ต่อต้าน	-6883
▁ถูกต้อง	-6884
▁delivery	-6885
▁FIT	-6886
ผิวหน้า	-6887
▁ทํางาน	-6888
▁ใช้งานง่าย	-6889
▁จอ	-6890
▁สําหรับใส่	-6891
พรรค	-6892
ตลอดทั้งวัน	-6893
lier	-6894
เคียง	-6895
▁Love	-6896
อาบน้ํา	-6897
▁Own	-6898
▁eyes	-6899
▁Point	-6900
▁Note	-6901
▁Rose	-6902
▁package	-6903
OTH	-6904
▁Maybe	-6905
▁ขา	-6906
ี้ยน	-6907
▁Line	-6908
พาณ	-6909
▁hope	-6910
imer	-6911
▁pos	-6912
▁MIC	-6913
ซ้อน	-6914
จา	-6915
สเตอร์	-6916
▁EL	-6917
▁จับ	-6918
lasting	-6919
ให้เลือก	-6920
ร่	-6921
ribut	-6922
ด้วยมือ	-6923
▁Technology	-6924
▁—	-6925
▁Batter	-6926
สิ่งแวดล้อม	-6927
GB	-6928
▁MA	-6929
▁Bag	-6930
ที่ดู	-6931
้ารับ	-6932
▁index	-6933
rench	-6934
ไม่ควร	-6935
สาวของฉัน	-6936
ube	-6937
คที	-6938
alled	-6939
rance	-6940
▁lots	-6941
ยึดเกาะ	-6942
ทรอน	-6943
วัฒนธรรม	-6944
EAN	-6945
▁sleeve	-6946
คริสต์มาส	-6947
เป็นของขวัญ	-6948
ously	-6949
ขนมปัง	-6950
▁entire	-6951
แบน	-6952
▁BLACK	-6953
▁มีการ	-6954
▁enjoyed	-6955
aven	-6956
ต้า	-6957
หรอก	-6958
▁Sim	-6959
▁squ	-6960
▁ในช่วง	-6961
▁decline	-6962
▁cla	-6963
เซียน	-6964
▁Mini	-6965
▁deb	-6966
▁grip	-6967
▁วิ	-6968
สถานะ	-6969
อิเล็ก	-6970
เทคนิค	-6971
ต้ห	-6972
▁Did	-6973
ตูน	-6974
▁concern	-6975
▁หลัง	-6976
▁Silver	-6977
เป็นเวลา	-6978
▁subject	-6979
▁Singapore	-6980
??	-6981
DB	-6982
▁forward	-6983
จินตนาการ	-6984
▁สม	-6985
ธิบดี	-6986
▁fish	-6987
enty	-6988
izer	-6989
ดิบ	-6990
ฝาก	-6991
▁กอง	-6992
ต่อสู้	-6993
ชายของฉัน	-6994
▁สาขา	-6995
▁national	-6996
ได้รับความ	-6997
แกร่ง	-6998
▁application	-6999
แอน	-7000
▁War	-7001
▁ภายใน	-7002
สัดส่วน	-7003
iversity	-7004
▁ไม่ได้	-7005
▁Eye	-7006
▁magn	-7007
ัสนุ่ม	-7008
ที่เกิดขึ้นใน	-7009
▁fut	-7010
▁Flex	-7011
▁เก็บ	-7012
ยืนยัน	-7013
▁การผลิต	-7014
ผิดหวังมาก	-7015
▁disb	-7016
▁flow	-7017
▁novel	-7018
ผ้านุ่ม	-7019
ใบเสร็จ	-7020
▁attract	-7021
ued	-7022
ภาษี	-7023
▁liked	-7024
▁door	-7025
ternal	-7026
บางเบา	-7027
agement	-7028
▁slowdown	-7029
▁training	-7030
กอ	-7031
กรีน	-7032
▁mine	-7033
ดอกไม้	-7034
▁scent	-7035
▁increasing	-7036
ml	-7037
▁ฉันใช้	-7038
▁decided	-7039
ทัศ	-7040
▁Hip	-7041
ิกส์	-7042
พร้อมกับ	-7043
นว	-7044
ief	-7045
White	-7046
ผลผลิต	-7047
รบ	-7048
ผูก	-7049
▁ABS	-7050
oupon	-7051
▁โดดเด่น	-7052
▁rich	-7053
ชุ่มชื่น	-7054
ค้าง	-7055
▁สุด	-7056
พอร์ต	-7057
สูญเสีย	-7058
▁songs	-7059
▁แน่นอน	-7060
▁คง	-7061
ยายน	-7062
▁Cut	-7063
กระแส	-7064
ปินส์	-7065
ในแบบ	-7066
กว่านี้	-7067
▁เอว	-7068
▁supply	-7069
เลว	-7070
เส้นผม	-7071
▁ไม	-7072
▁lips	-7073
lished	-7074
ประธาน	-7075
ว่าคุณ	-7076
▁printer	-7077
▁RE	-7078
ฝั่ง	-7079
ของจีน	-7080
เวีย	-7081
เบียน	-7082
ผู้ผลิต	-7083
สินเชื่อ	-7084
ต้หวัน	-7085
กั	-7086
พรี	-7087
▁สิง	-7088
▁หู	-7089
olute	-7090
rated	-7091
▁heart	-7092
BO	-7093
▁bow	-7094
ดัชนี	-7095
ไม่ค่อย	-7096
iny	-7097
▁stri	-7098
▁veget	-7099
▁faster	-7100
ted	-7101
ดูหนัง	-7102
▁Glass	-7103
▁บอก	-7104
▁eleg	-7105
ความสูง	-7106
▁amazon	-7107
▁Got	-7108
▁วินาที	-7109
เอ็กซ์แอล	-7110
wan	-7111
ถาดใหญ่	-7112
ละลาย	-7113
▁basic	-7114
พระเจ้า	-7115
▁portable	-7116
ลี	-7117
oll	-7118
อบอุ่น	-7119
ริ้วรอย	-7120
▁multiple	-7121
ศัก	-7122
onic	-7123
ตุลา	-7124
เทิง	-7125
▁Add	-7126
▁นะคะ	-7127
▁English	-7128
เหย	-7129
กดดัน	-7130
อย่างแน่นอน	-7131
ซัพพ	-7132
▁โปรแกรม	-7133
บอบ	-7134
▁แค	-7135
พาณิช	-7136
ในตอน	-7137
ด้านการ	-7138
ความชุ่มชื้น	-7139
UD	-7140
โจมตี	-7141
▁legs	-7142
▁Nylon	-7143
▁Cooling	-7144
▁sometimes	-7145
▁แนะนํา	-7146
▁electron	-7147
▁เพื่อให้	-7148
โค้ง	-7149
▁hor	-7150
คุณค่า	-7151
โรงแรม	-7152
▁copy	-7153
แบบนี้	-7154
▁contraction	-7155
FC	-7156
hol	-7157
บ่อย	-7158
ข้อมือ	-7159
เหตุการณ์	-7160
ตัวย	-7161
▁enc	-7162
ดั้งเดิม	-7163
ภู	-7164
อยู่บน	-7165
สนามบิน	-7166
ด้วยระบบ	-7167
It	-7168
๊ค	-7169
▁FL	-7170
ครู่	-7171
▁album	-7172
การแข่งขัน	-7173
เครื่องบิน	-7174
oral	-7175
▁Run	-7176
▁sand	-7177
รายได้	-7178
เล่นเกม	-7179
แคล	-7180
ษายน	-7181
▁surpr	-7182
ทูต	-7183
▁ชอบ	-7184
▁common	-7185
▁ซักเครื่อง	-7186
เมี	-7187
▁Her	-7188
▁tax	-7189
▁deterg	-7190
ช่าง	-7191
▁event	-7192
▁exports	-7193
สม่ําเสมอ	-7194
▁described	-7195
วีดี	-7196
▁ดอลล	-7197
สําหรับคุณ	-7198
icken	-7199
▁plus	-7200
▁effective	-7201
oke	-7202
ื้อง	-7203
บันเทิง	-7204
▁barrel	-7205
▁produc	-7206
▁fold	-7207
ผ่านไป	-7208
ฤดูกาล	-7209
▁files	-7210
▁alumin	-7211
ิปปินส์	-7212
▁outdoor	-7213
▁transport	-7214
ipes	-7215
มนุษย์	-7216
▁believe	-7217
เรล	-7218
รถเช่า	-7219
den	-7220
▁อาจ	-7221
แอนด์	-7222
ดูดซับ	-7223
▁smell	-7224
▁buttons	-7225
sw	-7226
▁:|-||	-7227
ถ่ายภาพ	-7228
TU	-7229
Black	-7230
▁กันน้ํา	-7231
ออสเตรเลีย	-7232
ส้ม	-7233
aped	-7234
▁ONE	-7235
ปริ	-7236
ดีใจ	-7237
หลาด	-7238
ิร์น	-7239
▁track	-7240
▁Connect	-7241
▁ฉันต้องการ	-7242
▁kept	-7243
▁แต่มี	-7244
▁disburs	-7245
ชาญ	-7246
▁PP	-7247
ศาสนา	-7248
▁meat	-7249
ความเย็น	-7250
cumference	-7251
▁สินค	-7252
เมื่อวันที่	-7253
▁ออ	-7254
▁floor	-7255
▁ขณะที่	-7256
ิฟ	-7257
▁Apr	-7258
▁Ref	-7259
mical	-7260
rible	-7261
▁saving	-7262
▁amazing	-7263
เธอก	-7264
▁พลาสติก	-7265
ุกร์	-7266
เกรด	-7267
▁Protect	-7268
▁มิ	-7269
ร่วมกัน	-7270
ของคุณด้วย	-7271
mon	-7272
เซน	-7273
onge	-7274
▁Sea	-7275
ศุกร์	-7276
▁activities	-7277
ตย	-7278
ken	-7279
ดสี	-7280
▁Jan	-7281
Sh	-7282
นู	-7283
บโต	-7284
▁Fast	-7285
าธิบดี	-7286
พาณิชย์	-7287
▁ฉันได้	-7288
การพิมพ์	-7289
ลืม	-7290
▁Acc	-7291
▁ill	-7292
▁lip	-7293
▁among	-7294
▁ground	-7295
ที่คุณต้องการ	-7296
round	-7297
ยอมรับ	-7298
▁เลือก	-7299
ขจัด	-7300
▁flavor	-7301
▁รายการ	-7302
ITE	-7303
▁Tai	-7304
ซับใน	-7305
พันธุ์	-7306
▁double	-7307
▁brands	-7308
▁efficiency	-7309
ลอก	-7310
ที่เธอ	-7311
▁lost	-7312
▁steam	-7313
illing	-7314
เหลี่ยม	-7315
▁six	-7316
mercial	-7317
▁enhance	-7318
▁detergent	-7319
ฉันไม่	-7320
▁cause	-7321
ให้เกิด	-7322
▁success	-7323
เหมือนกับ	-7324
หรา	-7325
▁สิ่งนี้	-7326
ลิน	-7327
▁watching	-7328
เดา	-7329
เรามี	-7330
▁located	-7331
▁particularly	-7332
▁Ess	-7333
▁Read	-7334
▁except	-7335
มาใน	-7336
▁picked	-7337
wing	-7338
ภาคม	-7339
ให้ดู	-7340
▁fire	-7341
▁Every	-7342
▁mount	-7343
ทุกครั้ง	-7344
▁usually	-7345
วิทยาศาสตร์	-7346
▁ไอ	-7347
มันจะ	-7348
สํารอง	-7349
ประจําวัน	-7350
ชําระ	-7351
หรูหรา	-7352
▁subst	-7353
อรม	-7354
illa	-7355
คือการ	-7356
▁content	-7357
▁supposed	-7358
าดู	-7359
โหม	-7360
▁sto	-7361
▁cris	-7362
▁memory	-7363
▁counter	-7364
าคม	-7365
▁เยี่ยมเลย	-7366
่าร์	-7367
แบบไหนคะ	-7368
▁consist	-7369
เทอร์เน็ต	-7370
▁=	-7371
ไปทาง	-7372
เงื่อนไข	-7373
ที่ได้รับการ	-7374
บด	-7375
อต	-7376
แว่น	-7377
▁April	-7378
ป้าย	-7379
▁Bro	-7380
เฉียง	-7381
▁แบตเตอรี่	-7382
▁ดูเหมือนว่า	-7383
▁AR	-7384
▁fair	-7385
▁meeting	-7386
▁continue	-7387
▁พก	-7388
ญั	-7389
bing	-7390
▁credit	-7391
อกัน	-7392
▁lux	-7393
▁team	-7394
▁ใช้กับ	-7395
มิติ	-7396
ของความ	-7397
▁ตั๋ว	-7398
ถู	-7399
▁pain	-7400
เห็นได้	-7401
▁rose	-7402
เติบโต	-7403
▁affect	-7404
▁คืน	-7405
using	-7406
▁flag	-7407
การเคลื่อนไหว	-7408
inder	-7409
▁fully	-7410
▁satis	-7411
ไฟเบอร์	-7412
▁placed	-7413
▁places	-7414
▁leaving	-7415
อาวุธ	-7416
ดาล	-7417
าด้าน	-7418
▁repe	-7419
มูลค่า	-7420
▁political	-7421
เถ	-7422
iving	-7423
อเนกประสงค์	-7424
▁ถนน	-7425
▁Prov	-7426
hesive	-7427
เสียเงิน	-7428
▁Indones	-7429
▁developed	-7430
เอน	-7431
▁Int	-7432
กระทํา	-7433
▁Asian	-7434
ากําลัง	-7435
รั่ว	-7436
▁Sept	-7437
aturing	-7438
ความจํา	-7439
รู้สึกว่า	-7440
zz	-7441
่มือ	-7442
ตุ๊กตา	-7443
สกัดจาก	-7444
▁mechan	-7445
▁vehicle	-7446
ara	-7447
▁LAN	-7448
สหภาพ	-7449
▁felt	-7450
ถ้วย	-7451
เหนียว	-7452
ชิ้นนี้	-7453
ที่นุ่ม	-7454
เป็นเจ้าของ	-7455
นักท่องเที่ยว	-7456
▁Je	-7457
ilities	-7458
กับความ	-7459
แข็งแกร่ง	-7460
นวณ	-7461
othing	-7462
▁sugar	-7463
ซื้อมัน	-7464
▁suggest	-7465
▁เธ	-7466
เชิ้	-7467
▁photos	-7468
▁sex	-7469
อีเมล	-7470
▁Only	-7471
ประทับใจ	-7472
▁wonderful	-7473
▁โอกาสที่สวมใส่	-7474
ปเปอโร	-7475
▁estab	-7476
▁Events	-7477
▁ไม่ต้อง	-7478
ออกแบบมาเพื่อ	-7479
lev	-7480
ามิน	-7481
ไปใน	-7482
▁Moist	-7483
▁Ultra	-7484
ที่แสดง	-7485
▁future	-7486
▁useful	-7487
ตลอดเวลา	-7488
พ่อ	-7489
สอน	-7490
สมอง	-7491
ชาการ	-7492
อรมนี	-7493
ทรอนิกส์	-7494
imin	-7495
▁ขอบใจ	-7496
▁necess	-7497
จี	-7498
hib	-7499
cast	-7500
▁vacuum	-7501
ที่ไหนคะ	-7502
▁impress	-7503
▁!!	-7504
▁LA	-7505
สามี	-7506
▁dpi	-7507
▁Owner	-7508
▁Battery	-7509
▁awesome	-7510
▁adjustment	-7511
%)	-7512
▁เลย	-7513
▁healthy	-7514
SE	-7515
REE	-7516
ไปตาม	-7517
เรียกร	-7518
▁Korean	-7519
▁broke	-7520
▁receive	-7521
▁รี	-7522
ูปอง	-7523
ให้แก่	-7524
ความคิดเห็น	-7525
HD	-7526
▁La	-7527
▁Whe	-7528
▁guy	-7529
การ์ด	-7530
▁หน่วย	-7531
ama	-7532
ธัน	-7533
erry	-7534
▁mouse	-7535
▁อยู่	-7536
▁เงิน	-7537
gy	-7538
กราคม	-7539
▁Comple	-7540
ปัญห	-7541
▁panel	-7542
สิ่งของ	-7543
▁France	-7544
ร้องเรียน	-7545
▁companies	-7546
ที่คุณสามารถ	-7547
บาน	-7548
▁pet	-7549
คู่กับ	-7550
สาธารณะ	-7551
▁mainly	-7552
ได้กับ	-7553
เท่ากับ	-7554
โฮ	-7555
▁seconds	-7556
▁จากการ	-7557
cul	-7558
▁Day	-7559
▁upd	-7560
น้อยลง	-7561
โตเกียว	-7562
ก็ดี	-7563
เป็นผู้	-7564
▁minute	-7565
อเมริกัน	-7566
เลือกตั้ง	-7567
วน์	-7568
แคน	-7569
สะดุด	-7570
็ปท็อป	-7571
ดิจิตอล	-7572
▁dimens	-7573
▁ensure	-7574
ซอฟ	-7575
บิด	-7576
ไก่	-7577
าร์ด	-7578
พร่อง	-7579
▁ขอให้	-7580
อาเซียน	-7581
▁Should	-7582
alax	-7583
มุ่ง	-7584
▁improved	-7585
▁Opt	-7586
▁ตั้ง	-7587
▁invol	-7588
การ์ตูน	-7589
ผู้คน	-7590
▁แต่มันก็	-7591
▁WH	-7592
▁Key	-7593
▁lights	-7594
▁systems	-7595
.,	-7596
▁became	-7597
การเขียน	-7598
▁ult	-7599
สภา	-7600
▁Bel	-7601
ก็ไม่	-7602
อะไรขึ้น	-7603
เด็กอายุ	-7604
มากนัก	-7605
สิ้นสุด	-7606
▁covers	-7607
▁er	-7608
ores	-7609
▁Are	-7610
ที่เขา	-7611
เชื่อถือ	-7612
▁smaller	-7613
▁Republic	-7614
▁รู้	-7615
▁Inter	-7616
▁shows	-7617
พอที่จะ	-7618
amic	-7619
▁site	-7620
▁island	-7621
นอม	-7622
▁FILA	-7623
กลาโหม	-7624
▁blend	-7625
▁POL	-7626
ในรอบ	-7627
▁นุ่ม	-7628
▁whether	-7629
ามัน	-7630
โจทย์	-7631
ฤษภาคม	-7632
▁solid	-7633
ิยม	-7634
กระตุ้น	-7635
▁projects	-7636
ogn	-7637
สมั	-7638
▁รู	-7639
หุ้น	-7640
abinet	-7641
inding	-7642
▁complaint	-7643
sm	-7644
ง่	-7645
▁โล	-7646
▁September	-7647
▁improvement	-7648
าซ	-7649
▁ครีม	-7650
▁Low	-7651
▁caused	-7652
▁financial	-7653
▁flat	-7654
▁ระหว่าง	-7655
▁ท่า	-7656
amless	-7657
▁share	-7658
เหล่านั้น	-7659
▁settings	-7660
▁Cy	-7661
▁Asia	-7662
▁Filter	-7663
น้ําแข็ง	-7664
▁request	-7665
กรด	-7666
สูงกว่า	-7667
Watt	-7668
ยากาศ	-7669
▁Natural	-7670
▁Pen	-7671
ใช้น้ํายา	-7672
ผู้นํา	-7673
▁simply	-7674
▁European	-7675
ige	-7676
▁relax	-7677
▁advanced	-7678
ตระ	-7679
เมอร์	-7680
▁iPhone	-7681
CO	-7682
PUT	-7683
ซอง	-7684
IGHT	-7685
PL	-7686
ก๊	-7687
ugged	-7688
▁couldn	-7689
ขับรถ	-7690
▁Book	-7691
▁Sport	-7692
ตอบโจทย์	-7693
ที่ไม่มี	-7694
IPS	-7695
▁edge	-7696
▁ultra	-7697
แขนสั้น	-7698
▁Google	-7699
▁ease	-7700
ปเตอร์	-7701
ในการใช้งาน	-7702
▁ไฟ	-7703
▁Form	-7704
▁larger	-7705
เจ้าของแบรนด์	-7706
คอย	-7707
เลียน	-7708
ลิ้น	-7709
บกพร่อง	-7710
standing	-7711
อย่างนั้น	-7712
bl	-7713
พิถ	-7714
วัล	-7715
ette	-7716
▁Yellow	-7717
▁Fed	-7718
ุมภาพ	-7719
bruary	-7720
▁target	-7721
ooper	-7722
▁Cons	-7723
ลงใน	-7724
สะสม	-7725
เนื้อหา	-7726
ITH	-7727
▁เริ	-7728
บันดาล	-7729
▁patterns	-7730
วิธีดูแลรักษา	-7731
ธันวา	-7732
คทีเรีย	-7733
ulture	-7734
ในชีวิต	-7735
▁ตกแต่ง	-7736
ฆ่า	-7737
▁UN	-7738
▁โซ	-7739
▁Slim	-7740
ที่ใหญ่	-7741
▁	-7742
alaxy	-7743
▁fell	-7744
▁software	-7745
ไวท์	-7746
▁พระ	-7747
level	-7748
▁wouldn	-7749
▁documents	-7750
สิงคโปร์	-7751
เล็ต	-7752
▁fee	-7753
▁ถุง	-7754
เราจะ	-7755
ุมภาพันธ์	-7756
แทนที่	-7757
▁และเป็น	-7758
oph	-7759
▁rot	-7760
ุนายน	-7761
▁measure	-7762
ฟฟ	-7763
ปลา	-7764
แปซิ	-7765
▁Double	-7766
▁เริ่ม	-7767
plus	-7768
▁ฟ้า	-7769
▁แก้ว	-7770
ที่มีการ	-7771
▁Electric	-7772
รหัสสินค้า	-7773
CT	-7774
▁Home	-7775
ถุนายน	-7776
▁clothes	-7777
เข้ากัน	-7778
▁Italian	-7779
SP	-7780
oop	-7781
ม่วง	-7782
▁mass	-7783
วิน	-7784
แพร่	-7785
▁Pres	-7786
กว่าร	-7787
มากเลย	-7788
บันดาลใจ	-7789
empt	-7790
▁Oct	-7791
▁putting	-7792
OOTH	-7793
▁self	-7794
ชง	-7795
▁saw	-7796
▁Card	-7797
วาน	-7798
ไอเท	-7799
อารมณ์	-7800
แฟชั่น	-7801
▁ahead	-7802
▁words	-7803
▁Den	-7804
RAN	-7805
เชิ้ต	-7806
ความมั่นคง	-7807
ธันวาคม	-7808
อัลบั้ม	-7809
แซ	-7810
▁̈	-7811
หิน	-7812
▁Although	-7813
ลิป	-7814
▁สวย	-7815
เลยมั้ยคะ	-7816
▁stability	-7817
ซิน	-7818
▁โทร	-7819
▁Smooth	-7820
▁covered	-7821
ที่ไหน	-7822
ต้ม	-7823
ล้ม	-7824
▁SY	-7825
ที่ให้	-7826
▁broken	-7827
▁required	-7828
ขวา	-7829
▁Mean	-7830
▁myself	-7831
▁player	-7832
ในภูมิภาค	-7833
ถี่	-7834
สนิท	-7835
เสียดาย	-7836
▁British	-7837
ACO	-7838
▁cutting	-7839
แลกเปลี่ยน	-7840
ทนนาน	-7841
▁Time	-7842
▁Street	-7843
▁June	-7844
▁prec	-7845
ตุลาคม	-7846
▁Ah	-7847
lear	-7848
ยุ่ง	-7849
ริกา	-7850
▁Det	-7851
▁Minister	-7852
ifications	-7853
ยาม	-7854
atts	-7855
rict	-7856
วบรวม	-7857
สุทธิ์	-7858
▁ในประเทศ	-7859
ano	-7860
▁Vol	-7861
▁ce	-7862
อนาค	-7863
จะทําให้	-7864
uk	-7865
▁ut	-7866
▁bath	-7867
หลายคน	-7868
ออกได้	-7869
epend	-7870
▁hang	-7871
jection	-7872
วันหยุด	-7873
ressor	-7874
องค์กร	-7875
ทะเบียน	-7876
▁ดอลล่าร์	-7877
▁signific	-7878
▁multi	-7879
eth	-7880
uel	-7881
อาย	-7882
▁gas	-7883
ง่ายต่อการ	-7884
ปา	-7885
ison	-7886
▁cases	-7887
อัตราดอกเบี้ย	-7888
่ห์	-7889
▁mel	-7890
▁เจ้า	-7891
▁Taiwan	-7892
กู้	-7893
acific	-7894
▁แนว	-7895
เบื้อง	-7896
ข้อตกลง	-7897
▁customer	-7898
▁speakers	-7899
cha	-7900
คราว	-7901
▁สอง	-7902
▁taken	-7903
ด้านล่าง	-7904
▁มันไม่ได้	-7905
amm	-7906
จัน	-7907
เม็ด	-7908
กฎาคม	-7909
กล้าม	-7910
อนาคต	-7911
▁Maximum	-7912
เกาหลีใต้	-7913
วย์	-7914
เลอร์	-7915
▁cars	-7916
คลาสสิค	-7917
ด้วยนะคะ	-7918
▁ความละเอียด	-7919
grams	-7920
▁disbursement	-7921
leg	-7922
▁depend	-7923
สมัคร	-7924
▁insp	-7925
umb	-7926
ิโคน	-7927
▁Works	-7928
▁Malays	-7929
▁regard	-7930
▁Australia	-7931
▁Meanwhile	-7932
มื้อ	-7933
▁Like	-7934
ประหลาด	-7935
วิตามิน	-7936
▁reasonable	-7937
irth	-7938
▁sport	-7939
มหา	-7940
่นี้	-7941
▁age	-7942
▁โต๊ะ	-7943
EA	-7944
ตลก	-7945
▁tri	-7946
▁Quick	-7947
▁USD	-7948
▁tank	-7949
▁ที่มาพร้อม	-7950
▁สินค้ามีอายุ	-7951
คลิป	-7952
นํามา	-7953
▁และความ	-7954
▁synthetic	-7955
▁Unfortunately	-7956
ที่สวยงาม	-7957
และข้อควรระวัง	-7958
zer	-7959
เบลา	-7960
▁camp	-7961
▁gentle	-7962
ดูเหมือนจะ	-7963
then	-7964
อัตราการ	-7965
ให้คุณได้	-7966
▁err	-7967
มันไม่	-7968
▁intro	-7969
▁description	-7970
ท่อ	-7971
ด่วน	-7972
เตียง	-7973
▁roll	-7974
กี่โมง	-7975
มุมมอง	-7976
▁human	-7977
abel	-7978
เด็น	-7979
กลับไป	-7980
คําถาม	-7981
ในเรื่อง	-7982
บริสุทธิ์	-7983
ที่แท้จริง	-7984
▁ผลิตภัณฑ์นี้	-7985
เต้	-7986
▁slip	-7987
▁สัมผ	-7988
▁Powder	-7989
▁chicken	-7990
▁เอาเป็น	-7991
▁keeping	-7992
inch	-7993
▁วันนี้	-7994
▁ตัวละคร	-7995
resistant	-7996
อยู่ในระดับ	-7997
▁accessories	-7998
eless	-7999
ตาราง	-8000
▁stap	-8001
▁ผลิต	-8002
▁Energy	-8003
▁entertain	-8004
าคา	-8005
ถนัด	-8006
asonic	-8007
▁limited	-8008
otal	-8009
ering	-8010
▁chair	-8011
etary	-8012
ที่ทํา	-8013
ได้เลย	-8014
ย่าง	-8015
▁building	-8016
PM	-8017
▁SC	-8018
mber	-8019
▁Philipp	-8020
▁อายุสินค้าน	-8021
คลิก	-8022
point	-8023
▁Button	-8024
ส่วนผสมของ	-8025
ศต	-8026
▁ra	-8027
เล็กๆ	-8028
▁ชื่อ	-8029
แล็ปท็อป	-8030
ได้สูงสุด	-8031
ana	-8032
▁onto	-8033
ym	-8034
มวล	-8035
odes	-8036
▁street	-8037
ทานอาหาร	-8038
าท	-8039
แปซิฟิก	-8040
▁experi	-8041
▁thickness	-8042
hest	-8043
▁field	-8044
▁EVA	-8045
▁speaker	-8046
ru	-8047
เดอะ	-8048
arant	-8049
▁จริง	-8050
▁depth	-8051
▁lining	-8052
สีน้ําเงิน	-8053
▁ปีหมายเหตุ	-8054
uty	-8055
จอด	-8056
ERA	-8057
ฉีก	-8058
โหมด	-8059
▁study	-8060
▁reflect	-8061
gress	-8062
iance	-8063
ักษณะ	-8064
▁estim	-8065
คําสั่ง	-8066
ในแต่ละ	-8067
▁อูเบอร์	-8068
▁December	-8069
▁เหมาะกับ	-8070
▁immediately	-8071
เบาสบาย	-8072
▁turned	-8073
asc	-8074
จนกว่า	-8075
▁ประตู	-8076
พักผ่อน	-8077
▁negative	-8078
ขวาง	-8079
▁Tape	-8080
▁shut	-8081
มาร์	-8082
สาเหตุ	-8083
▁dropped	-8084
ที่เกี่ยวข้อง	-8085
▁Kn	-8086
▁Wr	-8087
▁อี	-8088
acing	-8089
ในพื้นที่	-8090
ศตวรรษ	-8091
▁Beaut	-8092
ดูดฝุ่น	-8093
ืบ	-8094
▁Af	-8095
กรอก	-8096
▁สิ่งเดียว	-8097
▁กลิ่น	-8098
ให้ไปรับ	-8099
▁ปลอดภัย	-8100
▁ปรับระดับ	-8101
son	-8102
▁ju	-8103
เบลาส์	-8104
ทร์	-8105
มัด	-8106
เดน	-8107
▁Gel	-8108
▁มอบความ	-8109
▁February	-8110
เต็มไปด้วย	-8111
▁[	-8112
▁Fly	-8113
สะโพก	-8114
▁July	-8115
ETOOTH	-8116
▁Bangk	-8117
▁language	-8118
GO	-8119
เลก	-8120
▁exercise	-8121
อร์ก	-8122
▁เป็นการ	-8123
▁economies	-8124
ground	-8125
ได้ด้วย	-8126
แบคทีเรีย	-8127
▁ระบายอากาศได้ดี	-8128
▁จัด	-8129
▁Slip	-8130
อิตาลี	-8131
▁ASEAN	-8132
▁คุณต้องการ	-8133
USE	-8134
ร่อย	-8135
▁Fur	-8136
▁January	-8137
▁sea	-8138
ทดแทน	-8139
▁boring	-8140
ครั้งเดียว	-8141
▁รหัสสินค้า	-8142
▁พล	-8143
น้อง	-8144
▁Bright	-8145
ก็จะ	-8146
▁RES	-8147
cover	-8148
▁weather	-8149
จู	-8150
เส้นทาง	-8151
▁potential	-8152
อินเทอร์เน็ต	-8153
TY	-8154
เยอรมนี	-8155
ที่เหลือ	-8156
▁ordering	-8157
▁ขอบคุณมาก	-8158
แรงบันดาลใจ	-8159
IE	-8160
▁Sugg	-8161
เลเซีย	-8162
นี่เป็น	-8163
ส่งคืน	-8164
▁bra	-8165
ทุกที่	-8166
▁heard	-8167
หมายความ	-8168
▁relations	-8169
▁ventil	-8170
รน	-8171
▁Exp	-8172
ources	-8173
▁Nove	-8174
▁uber	-8175
▁เฉ	-8176
ําคา	-8177
▁events	-8178
ทุกร	-8179
olate	-8180
เพลิง	-8181
▁Russ	-8182
ําคาญ	-8183
ห้ามใช้	-8184
▁commercial	-8185
▁CM	-8186
▁ตัด	-8187
มอบความ	-8188
เปียก	-8189
▁....	-8190
▁Shade	-8191
▁accur	-8192
สัมผัสนุ่ม	-8193
▁และร้อยละ	-8194
tle	-8195
▁Bought	-8196
▁Orange	-8197
inc	-8198
นาง	-8199
amel	-8200
▁email	-8201
ฤดูหนาว	-8202
เพราะฉัน	-8203
▁Sleeves	-8204
mit	-8205
▁den	-8206
▁dial	-8207
▁center	-8208
ฝน	-8209
แมท	-8210
rate	-8211
▁lat	-8212
oured	-8213
▁Digital	-8214
ynam	-8215
คงทน	-8216
▁Mil	-8217
ategy	-8218
▁พกพา	-8219
ไต้หวัน	-8220
INS	-8221
▁exte	-8222
▁meth	-8223
▁ฉันรัก	-8224
ในวันที่	-8225
▁จากการตั้ง	-8226
้ก	-8227
▁สูตร	-8228
ไม่รวม	-8229
▁deceler	-8230
้ารับประกัน	-8231
▁recommended	-8232
วาด	-8233
๎าน	-8234
▁capt	-8235
▁Since	-8236
▁ทําไม	-8237
▁อาหาร	-8238
ของตัวเอง	-8239
▁ผู้เขียน	-8240
ober	-8241
เยาว	-8242
▁Mus	-8243
นอกจาก	-8244
▁cards	-8245
แล้วกัน	-8246
ทัศน์	-8247
ฟัน	-8248
aded	-8249
ทางเลือก	-8250
▁superior	-8251
ขี	-8252
ดีๆ	-8253
▁ผ่าน	-8254
▁leaves	-8255
แทนที่จะ	-8256
▁individ	-8257
▁stopped	-8258
ถึงความ	-8259
เป็นที่	-8260
ที่สุดใน	-8261
ทํางานได้	-8262
ภายในประเทศ	-8263
apers	-8264
▁lear	-8265
หัวปากกา	-8266
▁November	-8267
ABLE	-8268
จากร้าน	-8269
▁เป็นต้น	-8270
ปัก	-8271
oved	-8272
▁Inc	-8273
rafted	-8274
▁repair	-8275
▁Develop	-8276
cel	-8277
แมต	-8278
▁Hot	-8279
ิกายน	-8280
ซื้อมา	-8281
จากไตรมาส	-8282
▁absolute	-8283
อรมัน	-8284
▁chart	-8285
ี่ยวชาญ	-8286
▁summer	-8287
▁inspect	-8288
ที่เพิ่มขึ้น	-8289
▁Instructions	-8290
หล่น	-8291
▁apart	-8292
▁รูปแบบ	-8293
▁เปลี่ยน	-8294
▁Ab	-8295
ryst	-8296
▁Box	-8297
ailed	-8298
▁unless	-8299
มืออาชีพ	-8300
SA	-8301
ทอด	-8302
▁hook	-8303
ต์แวร์	-8304
ศจิกายน	-8305
▁Cartridge	-8306
มักจะ	-8307
สองคน	-8308
▁iPad	-8309
แนวคิด	-8310
สําอ	-8311
▁City	-8312
▁degrees	-8313
สามารถปรับ	-8314
หลีกเลี่ยง	-8315
▁ฟิล	-8316
แรงดัน	-8317
▁MICRO	-8318
ต้องใช้	-8319
นวัตกรรม	-8320
▁สัปดาห์	-8321
บลู	-8322
ผ่า	-8323
ิปต์	-8324
กง	-8325
▁SE	-8326
▁คอม	-8327
▁spend	-8328
▁กล้อง	-8329
▁effects	-8330
▁contains	-8331
▁industry	-8332
▁occasion	-8333
na	-8334
▁สาร	-8335
▁title	-8336
▁download	-8337
ague	-8338
aring	-8339
สมดุล	-8340
▁park	-8341
ตัวเลข	-8342
พระราช	-8343
▁Canon	-8344
▁income	-8345
▁ที่ช่วย	-8346
ma	-8347
▁sweat	-8348
▁Galaxy	-8349
▁whipped	-8350
▁response	-8351
ได้อย่างรวดเร็ว	-8352
ension	-8353
ปเปอโรนี	-8354
▁เรื่องราว	-8355
หนูๆ	-8356
จองโต๊ะ	-8357
มาจากการ	-8358
อิเล็กทรอนิกส์	-8359
รุ	-8360
▁Park	-8361
▁answ	-8362
▁ท่าน	-8363
▁Index	-8364
▁seating	-8365
▁สิงหาคม	-8366
เพียงอย่างเดียว	-8367
โถ	-8368
OUR	-8369
ตาก	-8370
ancing	-8371
ว่าทําไม	-8372
ใช้ไฟฟ้า	-8373
คําอธิบาย	-8374
▁customers	-8375
▁Side	-8376
▁feed	-8377
▁ป้าย	-8378
▁มันจะ	-8379
▁hem	-8380
ตลอดวัน	-8381
▁models	-8382
▁remote	-8383
▁ลักษณะ	-8384
▁installed	-8385
ปวด	-8386
▁Last	-8387
เชี่ยวชาญ	-8388
โซน	-8389
▁SW	-8390
mark	-8391
ล่วง	-8392
▁SPF	-8393
น์โหลด	-8394
▁ส่วนลด	-8395
▁learning	-8396
una	-8397
▁ice	-8398
▁led	-8399
rating	-8400
▁Under	-8401
▁Display	-8402
▁ความลึก	-8403
โดยเฉลี่ย	-8404
มากกว่านี้	-8405
ชี้	-8406
▁ยก	-8407
ดีและ	-8408
ดีวีดี	-8409
▁มีระบบ	-8410
▁professional	-8411
▁Does	-8412
▁opin	-8413
▁tourists	-8414
อินโดนีเซีย	-8415
▁entertainment	-8416
บาด	-8417
▁ปั	-8418
เวย์	-8419
ข้างนอก	-8420
kn	-8421
มติ	-8422
มัล	-8423
แชม	-8424
▁dogs	-8425
iously	-8426
แสงแดด	-8427
itation	-8428
▁fastening	-8429
▁operation	-8430
ขายาว	-8431
สําอาง	-8432
▁Large	-8433
มีชีวิต	-8434
▁French	-8435
istry	-8436
▁Watch	-8437
▁began	-8438
▁elastic	-8439
bit	-8440
▁Wi	-8441
▁หลัก	-8442
▁recogn	-8443
▁Neckline	-8444
▁เฮ้	-8445
ลิเจน	-8446
หมายเลข	-8447
▁purchasing	-8448
▁ประกอบด้วย	-8449
wood	-8450
ดินสอ	-8451
▁leak	-8452
▁mach	-8453
▁prep	-8454
▁rise	-8455
▁town	-8456
จากผ้า	-8457
ไม่นาน	-8458
▁label	-8459
▁ปราศจาก	-8460
▁chemical	-8461
▁returned	-8462
ฟิลิปปินส์	-8463
MS	-8464
ซิส	-8465
▁BO	-8466
ุดิบ	-8467
atile	-8468
▁สีชมพู	-8469
วิธีการดูแลรักษา	-8470
INE	-8471
ปลอก	-8472
▁Prime	-8473
▁visit	-8474
▁DC	-8475
นานา	-8476
ators	-8477
เป็นคน	-8478
▁Stick	-8479
ในรูปแบบ	-8480
ลาม	-8481
▁Germany	-8482
▁network	-8483
ตําร	-8484
▁อ่าน	-8485
โซเวีย	-8486
ซิลิโคน	-8487
บรรยากาศ	-8488
▁Bangkok	-8489
cy	-8490
ปัญหาก	-8491
คล่องตัว	-8492
▁ฉันกําลัง	-8493
ในเมือง	-8494
▁expend	-8495
ออร์	-8496
▁keys	-8497
กระดับ	-8498
▁played	-8499
มหาวิทยาลัย	-8500
แถว	-8501
ืนยัน	-8502
▁Chart	-8503
▁pencil	-8504
AND	-8505
onom	-8506
สาวๆ	-8507
▁rat	-8508
▁shock	-8509
▁holding	-8510
▁แรง	-8511
▁Touch	-8512
ที่เกิด	-8513
▁และยัง	-8514
สมาร์ทโฟน	-8515
▁เกม	-8516
▁Total	-8517
▁fourth	-8518
▁คอตตอน	-8519
▁ช่วยให้คุณ	-8520
▁chest	-8521
▁plant	-8522
มองเห็น	-8523
ทําให้เกิด	-8524
สัม	-8525
ระเบิด	-8526
▁members	-8527
▁represent	-8528
▁:(	-8529
▁สนุก	-8530
ขอบคุณ	-8531
▁sponge	-8532
▁ว่า	-8533
▁sleek	-8534
ภายหลัง	-8535
เกินดุล	-8536
▁ทั้งนี้	-8537
ENS	-8538
บวก	-8539
▁Art	-8540
▁Ble	-8541
ปกปิด	-8542
ฟิล์ม	-8543
นุ่มนวล	-8544
▁ได้เลย	-8545
พึง	-8546
rior	-8547
soft	-8548
▁Tod	-8549
ripes	-8550
ใส่นม	-8551
▁haven	-8552
▁ห้ามใช้	-8553
▁ขยายตัวร้อยละ	-8554
สาท	-8555
ycle	-8556
เลิศ	-8557
▁reported	-8558
ao	-8559
▁Dust	-8560
▁upon	-8561
ให้ผิว	-8562
▁นาฬิกา	-8563
▁remained	-8564
▁straight	-8565
อป	-8566
rost	-8567
ทราบว่า	-8568
▁ip	-8569
▁Dual	-8570
▁ways	-8571
บางสิ่ง	-8572
▁ตัวอย่าง	-8573
ราม	-8574
▁MAC	-8575
เด็กๆ	-8576
VERTER	-8577
และมัน	-8578
▁birth	-8579
▁compatible	-8580
allic	-8581
▁nylon	-8582
เคลียร์	-8583
▁provided	-8584
ยุทธศาสตร์	-8585
รภัย	-8586
▁boy	-8587
เฟอร์	-8588
▁prop	-8589
▁นั้น	-8590
itamin	-8591
▁Washing	-8592
▁decreased	-8593
ํอน	-8594
▁หุ	-8595
▁Lol	-8596
▁avoid	-8597
▁หูฟัง	-8598
▁นอกจากนี้ยัง	-8599
uses	-8600
▁October	-8601
▁household	-8602
หนะ	-8603
ไดร	-8604
oney	-8605
▁Sony	-8606
▁menu	-8607
หนังสือที่	-8608
ession	-8609
▁Organ	-8610
▁มีช่อง	-8611
เครือข่าย	-8612
เนียนนุ่ม	-8613
ได้หลากหลาย	-8614
▁fund	-8615
มีส่วน	-8616
เงินบาท	-8617
▁อยากจะ	-8618
▁เพียงแค่	-8619
▁ach	-8620
▁gel	-8621
คนนี้	-8622
และสี	-8623
▁จนถึง	-8624
▁evening	-8625
ถ่าน	-8626
▁Help	-8627
หัวข้อ	-8628
▁Friday	-8629
▁surplus	-8630
uge	-8631
เร็วก	-8632
▁living	-8633
▁Rel	-8634
▁นํา	-8635
▁มิล	-8636
▁Most	-8637
▁Pure	-8638
▁loss	-8639
ของฉันคือ	-8640
▁init	-8641
รวบรวม	-8642
▁behind	-8643
▁Panasonic	-8644
เสถ	-8645
riger	-8646
สบายๆ	-8647
▁เรามี	-8648
▁ใช้เวลา	-8649
▁Assorted	-8650
▁maintain	-8651
▁register	-8652
ราคาสินค้า	-8653
ว้าง	-8654
ลาเต้	-8655
▁factors	-8656
เป็นไปได้	-8657
▁EN	-8658
ปร่าง	-8659
หัวใจ	-8660
ผู้ใช้	-8661
▁ident	-8662
รองรับแรงกระแทก	-8663
ชุม	-8664
fits	-8665
▁farm	-8666
charge	-8667
▁Edition	-8668
▁Station	-8669
ดิต	-8670
▁Fresh	-8671
▁bacter	-8672
▁East	-8673
▁mini	-8674
irection	-8675
ของรัฐบาล	-8676
▁directions	-8677
INI	-8678
แทบ	-8679
▁Rev	-8680
oting	-8681
ฉันจึง	-8682
▁Classic	-8683
▁manufactur	-8684
▁automatically	-8685
ชุ	-8686
สวิ	-8687
▁ME	-8688
ples	-8689
ใช้ว	-8690
▁road	-8691
ได้มาก	-8692
▁Cloud	-8693
▁efficient	-8694
คลัง	-8695
▁lim	-8696
▁pub	-8697
▁เพลง	-8698
ของนัก	-8699
บอน	-8700
iable	-8701
เลือด	-8702
เสน่ห์	-8703
cle	-8704
ออง	-8705
▁appears	-8706
ifier	-8707
ipper	-8708
▁dish	-8709
เคเบิล	-8710
▁attempt	-8711
▁advertised	-8712
ops	-8713
วันที่ดี	-8714
เสื้อยืด	-8715
▁offering	-8716
attle	-8717
▁rust	-8718
น้ําหอม	-8719
อร์แลนด์	-8720
▁created	-8721
เชือก	-8722
▁imag	-8723
ลดลงของ	-8724
ij	-8725
ลิ้ง	-8726
▁Sand	-8727
▁sell	-8728
▁บริเวณ	-8729
▁Solutions	-8730
ารี	-8731
▁Emb	-8732
plement	-8733
เต็มที่	-8734
▁scratches	-8735
▁input	-8736
ปาน	-8737
▁สอด	-8738
▁tools	-8739
▁Limited	-8740
เชื่อมั่น	-8741
ของตน	-8742
ข้อผิดพลาด	-8743
▁force	-8744
แดปเตอร์	-8745
no	-8746
ไท	-8747
ฝัน	-8748
illow	-8749
▁scen	-8750
▁Particle	-8751
▁recorded	-8752
▁electrical	-8753
การเชื่อมต่อ	-8754
ุทร	-8755
▁bags	-8756
เสถียร	-8757
ในฐานะ	-8758
▁adult	-8759
▁คละสี	-8760
คนหนึ่ง	-8761
เยอรมัน	-8762
▁finally	-8763
▁ฉันไม่ได้	-8764
ที่ชอบ	-8765
▁พวกเรา	-8766
ใกล้เคียง	-8767
▁BU	-8768
▁PLAY	-8769
▁ขอเป็น	-8770
▁surfaces	-8771
คณะกรรมการ	-8772
▁!	-8773
สตรี	-8774
▁stim	-8775
ribution	-8776
ิร์ฟ	-8777
▁Face	-8778
▁woman	-8779
▁handles	-8780
สั่น	-8781
ปรับลด	-8782
▁Games	-8783
▁แถม	-8784
หาร้าน	-8785
หลวง	-8786
ะฮ่า	-8787
▁plenty	-8788
สุดพิเศษ	-8789
าจ	-8790
ica	-8791
▁ลอง	-8792
ในบ้าน	-8793
▁trend	-8794
ห์น	-8795
▁Ge	-8796
▁Pa	-8797
มาให้	-8798
▁Hard	-8799
▁user	-8800
ส่วนลด	-8801
ได้ค่ะ	-8802
▁Never	-8803
▁Pattern	-8804
▁wants	-8805
▁liters	-8806
อย่างที่	-8807
โดยไม่มี	-8808
▁แต่หลังจาก	-8809
เครื่องสําอาง	-8810
▁Hyd	-8811
▁เคส	-8812
▁Kingdom	-8813
เมื่อไหร่	-8814
▁appearance	-8815
▁makeup	-8816
▁cheaper	-8817
เสริมสร้าง	-8818
▁เยี่ยมค่ะ	-8819
face	-8820
▁lets	-8821
▁paid	-8822
กัส	-8823
เกจ	-8824
ค่ํา	-8825
เมิน	-8826
ก่อนนะคะ	-8827
บรรจุภัณฑ์	-8828
▁SS	-8829
immer	-8830
iameter	-8831
▁SA	-8832
ading	-8833
idity	-8834
ไหมอ่ะ	-8835
การเดินทาง	-8836
▁driving	-8837
▁irr	-8838
▁Bott	-8839
▁harm	-8840
▁pleased	-8841
เพิ่มขึ้นของ	-8842
▁Sur	-8843
▁รัก	-8844
ACOAL	-8845
ฝาปิด	-8846
▁exist	-8847
รัสเซีย	-8848
▁missing	-8849
▁station	-8850
ECH	-8851
▁Har	-8852
▁nuc	-8853
ในทุกๆ	-8854
▁Table	-8855
▁image	-8856
▁latest	-8857
▁schedule	-8858
กี้	-8859
ป่า	-8860
ians	-8861
▁gre	-8862
แรกของ	-8863
▁waterproof	-8864
เกิดอะไรขึ้น	-8865
▁ท่าอากาศยาน	-8866
พิษ	-8867
▁twice	-8868
ccasions	-8869
▁ปรับตัว	-8870
ปครีม	-8871
▁ก้อน	-8872
▁German	-8873
▁Supports	-8874
ความสําเร็จ	-8875
ศี	-8876
ada	-8877
emb	-8878
เมาส์	-8879
ดึงดูด	-8880
▁สีเทา	-8881
▁เมือง	-8882
▁WACOAL	-8883
▁status	-8884
ที่ฉันเคย	-8885
sel	-8886
▁แด	-8887
เป่า	-8888
แท็บ	-8889
▁sus	-8890
arnings	-8891
▁ตามการ	-8892
อยู่ที่ร้อยละ	-8893
che	-8894
▁NY	-8895
ตาร์	-8896
▁rom	-8897
ahaha	-8898
▁necessary	-8899
ทางการเมือง	-8900
ด่าง	-8901
▁toy	-8902
▁finished	-8903
▁agre	-8904
▁desk	-8905
itution	-8906
โซเวียต	-8907
ไม่เกิน	-8908
▁Fry	-8909
▁seats	-8910
ushroom	-8911
▁appli	-8912
▁images	-8913
จันทร์	-8914
▁สหรัฐ	-8915
OCK	-8916
รษะ	-8917
arbon	-8918
▁grade	-8919
▁screw	-8920
▁stock	-8921
▁helpful	-8922
▁trouble	-8923
older	-8924
โรงหนัง	-8925
▁เทียบกับการ	-8926
▁Lif	-8927
ละออง	-8928
▁cross	-8929
▁signal	-8930
▁Compressor	-8931
อท	-8932
โกน	-8933
▁Sub	-8934
▁integr	-8935
ใส่เอกสาร	-8936
หมาด	-8937
ศีรษะ	-8938
ิฟอร์	-8939
▁grad	-8940
▁Cover	-8941
▁Extra	-8942
▁Cleans	-8943
fy	-8944
▁Prom	-8945
▁recipes	-8946
ภาษาอังกฤษ	-8947
▁Suggestions	-8948
าวุธ	-8949
แย้ง	-8950
▁appl	-8951
▁sets	-8952
▁notes	-8953
▁BLUETOOTH	-8954
▁restaurants	-8955
IVE	-8956
ลิ้งค์	-8957
▁เพื่อความ	-8958
▁DIS	-8959
▁สิ้น	-8960
▁refer	-8961
▁มีนาคม	-8962
UB	-8963
ฉะ	-8964
▁Kid	-8965
สิ่งสกปรก	-8966
ส่วนหนึ่งของ	-8967
▁host	-8968
ียิปต์	-8969
▁ในขณะ	-8970
▁div	-8971
▁opened	-8972
▁occasions	-8973
สีเขียว	-8974
▁Malaysia	-8975
พิง	-8976
เลือน	-8977
น่าเบื่อ	-8978
เบาะ	-8979
▁listening	-8980
▁สีสันสดใส	-8981
ิยาย	-8982
▁ter	-8983
▁จ้ะ	-8984
เอารถ	-8985
ในรูป	-8986
▁degree	-8987
▁stores	-8988
▁จีน	-8989
ที่ยัง	-8990
▁watts	-8991
yft	-8992
▁fem	-8993
▁ขวบ	-8994
▁matte	-8995
ทวี	-8996
เงียบ	-8997
▁fragrance	-8998
ดูเหมือนว่า	-8999
▁MO	-9000
▁older	-9001
▁earlier	-9002
▁ยินดีค่ะ	-9003
เสม	-9004
▁wet	-9005
▁Cour	-9006
▁likes	-9007
รู้สึกสบาย	-9008
▁สินค้าบรรจุ	-9009
STEM	-9010
▁Ton	-9011
ิ่งขึ้น	-9012
▁attention	-9013
ในน้ํา	-9014
▁skills	-9015
▁Premium	-9016
▁excited	-9017
▁ความยาวแขนเสื้อ	-9018
แอฟ	-9019
▁yield	-9020
▁รัฐบาล	-9021
ขาส	-9022
ทัล	-9023
ลล์	-9024
อิ่ม	-9025
็กซิ	-9026
▁web	-9027
จะทํา	-9028
▁ห้อง	-9029
▁plate	-9030
บทวิจารณ์	-9031
enced	-9032
▁ประมาณ	-9033
ได้อย่างไร	-9034
▁เช่นเดียวกับ	-9035
บรา	-9036
usage	-9037
คละสี	-9038
▁Cert	-9039
▁auto	-9040
เลยนะคะ	-9041
▁expenditure	-9042
▁traditional	-9043
more	-9044
etime	-9045
▁pace	-9046
ฟื้นฟู	-9047
▁ที่ลิ้งค์	-9048
▁ที่ลิ้งค์ด้านบน	-9049
อุดม	-9050
iling	-9051
▁pure	-9052
▁ended	-9053
▁Safety	-9054
▁internal	-9055
กระทะ	-9056
มีอะไร	-9057
โทรศัพท์มือถือ	-9058
ATE	-9059
เครดิต	-9060
▁rating	-9061
อู่	-9062
ร่อง	-9063
เซ็ก	-9064
มารับ	-9065
▁below	-9066
▁external	-9067
กรี	-9068
เคิล	-9069
▁shades	-9070
ดีที่สุด	-9071
นั้นเป็น	-9072
ได้ไหมคะ	-9073
สร้างขึ้น	-9074
atin	-9075
านี้	-9076
่มัน	-9077
▁www	-9078
เมี่ยม	-9079
เซลเซีย	-9080
▁ควบคุม	-9081
ต่างชาติ	-9082
▁industrial	-9083
▁พันล้านบาท	-9084
appy	-9085
ston	-9086
▁Cur	-9087
วินาที	-9088
▁Compact	-9089
▁ขอบคุณนะ	-9090
ตรวจสอบไซส์	-9091
▁:-)	-9092
▁กลุ่ม	-9093
ocolate	-9094
ซักแห้ง	-9095
▁เทียบกับ	-9096
▁ฉันอยากจะ	-9097
อัพ	-9098
▁ชม	-9099
เจ็ท	-9100
andex	-9101
eness	-9102
▁figure	-9103
▁moving	-9104
ครั้งนี้	-9105
ที่ดีมาก	-9106
ถั่ว	-9107
▁บาท	-9108
▁Serv	-9109
▁exchange	-9110
เตน	-9111
▁NES	-9112
คอกลม	-9113
▁anal	-9114
▁topp	-9115
liters	-9116
▁holds	-9117
▁Mic	-9118
▁sort	-9119
▁ฝ้าย	-9120
▁airport	-9121
▁กําลังไฟ	-9122
ร้า	-9123
▁shel	-9124
จะพร้อม	-9125
ความชื้น	-9126
RY	-9127
หาด	-9128
▁GU	-9129
ANCE	-9130
venue	-9131
บอบบาง	-9132
▁ฉันขอ	-9133
ไลท์	-9134
empor	-9135
วรรดิ	-9136
เหรียญ	-9137
คุณต้อง	-9138
นวย	-9139
▁sheet	-9140
▁management	-9141
▁Therm	-9142
▁beginning	-9143
เป้	-9144
▁NO	-9145
ella	-9146
based	-9147
มันมี	-9148
สายรัด	-9149
แบบไหน	-9150
▁โดยรวมแล้ว	-9151
เอ็น	-9152
▁Sens	-9153
▁individual	-9154
▁แห่ง	-9155
imately	-9156
ปราศจาก	-9157
▁meters	-9158
ิฟอร์เนีย	-9159
ffic	-9160
ถนอม	-9161
▁Mex	-9162
ความสัมพันธ์	-9163
unk	-9164
ไล่	-9165
หมวก	-9166
▁Cook	-9167
แรงงาน	-9168
▁Afric	-9169
▁Shape	-9170
▁INVERTER	-9171
เข้าไปใน	-9172
▁เพื่อน	-9173
▁มีอะไรให้ช่วย	-9174
FT	-9175
oven	-9176
้ง่าย	-9177
▁hoping	-9178
▁รอบเอว	-9179
▁connected	-9180
ME	-9181
ITY	-9182
โน้ต	-9183
▁Take	-9184
▁flash	-9185
▁refres	-9186
MA	-9187
ชิด	-9188
ทาย	-9189
▁Sorry	-9190
ประชาชาติ	-9191
▁jo	-9192
▁เดิน	-9193
▁outstanding	-9194
แทร	-9195
โกแล	-9196
▁dirt	-9197
ยกเว้น	-9198
ปานกลาง	-9199
mb	-9200
ไบ	-9201
บุ๊ค	-9202
อดีต	-9203
▁โร	-9204
เห็นว่า	-9205
▁happens	-9206
▁waiting	-9207
▁implement	-9208
▁nut	-9209
▁Bank	-9210
▁lack	-9211
▁shown	-9212
▁particip	-9213
apped	-9214
ishing	-9215
ประหลาดใจ	-9216
jet	-9217
OWER	-9218
ไนลอน	-9219
่ง่าย	-9220
▁แป้ง	-9221
▁spending	-9222
▁mentioned	-9223
▁providing	-9224
▁นอกจากนั้น	-9225
ค่าการส่งออก	-9226
▁convenience	-9227
▁เยี่ยมเลยค่ะ	-9228
NA	-9229
พบกับ	-9230
ง่ายและ	-9231
▁elegant	-9232
องค์ประกอบ	-9233
▁confident	-9234
สรี	-9235
duce	-9236
ปลูก	-9237
เวียน	-9238
▁Dark	-9239
▁สามี	-9240
ighest	-9241
▁paint	-9242
ployment	-9243
▁cabinet	-9244
▁แขนสั้น	-9245
ธนาคารกลาง	-9246
▁President	-9247
▁Squ	-9248
สมุทร	-9249
IND	-9250
▁Built	-9251
▁ฉันได้รับ	-9252
เป็นธรรมชาติ	-9253
adow	-9254
rows	-9255
quency	-9256
▁เขียว	-9257
▁listen	-9258
▁Android	-9259
▁toppings	-9260
▁Bur	-9261
▁mac	-9262
สิ่งต่าง	-9263
▁โค	-9264
haps	-9265
avour	-9266
ynamic	-9267
อยู่แล้ว	-9268
▁delivered	-9269
ili	-9270
กรัฐ	-9271
▁tray	-9272
▁Mexic	-9273
▁happen	-9274
▁protects	-9275
▁องศาเซลเซีย	-9276
tage	-9277
เถอะ	-9278
ในกรณี	-9279
ี้ยนโยบาย	-9280
อะไรเลย	-9281
ที่ไม่ได้	-9282
อับ	-9283
ู้ด	-9284
▁Baht	-9285
▁หนึ่ง	-9286
▁forces	-9287
คาดการณ์	-9288
ooperation	-9289
▁ic	-9290
เลย์	-9291
▁Exce	-9292
ซัพพอร์ท	-9293
▁positive	-9294
ถัด	-9295
สมุด	-9296
โชว์	-9297
▁ยาง	-9298
arden	-9299
ฟังเพลง	-9300
▁Series	-9301
อัปเปอร์	-9302
ก่อให้เกิด	-9303
▁ด้วยการ	-9304
▁Warnings	-9305
▁แต่ถ้าคุณ	-9306
แสดงให้เห็น	-9307
เซต	-9308
▁AV	-9309
เดรส	-9310
▁แห้ง	-9311
ifying	-9312
จะช่วย	-9313
ที่ทันสมัย	-9314
▁การออกแบบ	-9315
เช่นนี้	-9316
แรงกดดัน	-9317
▁conduct	-9318
▁situation	-9319
▁Cre	-9320
▁ideas	-9321
▁sizes	-9322
มีสไตล์	-9323
ปัญหากับ	-9324
เปล่งประกาย	-9325
▁bi	-9326
▁Save	-9327
▁ใบมีด	-9328
เช่นนั้น	-9329
▁precise	-9330
▁SL	-9331
gypt	-9332
iece	-9333
เบิร์	-9334
เอ็มซี	-9335
เข็มขัด	-9336
▁เหตุผล	-9337
imed	-9338
งั้น	-9339
ญัติ	-9340
สตีล	-9341
▁Aqu	-9342
▁เล่น	-9343
น่ะค่ะ	-9344
▁fiber	-9345
ทีเดียว	-9346
▁remain	-9347
ล่วงหน้า	-9348
▁guarant	-9349
urb	-9350
▁Adv	-9351
ylene	-9352
เส้นใย	-9353
▁prior	-9354
▁defect	-9355
▁ไตรมาส	-9356
▁keyboard	-9357
Fi	-9358
shirt	-9359
สีฟ้า	-9360
▁boost	-9361
ประกอบการ	-9362
▁ผลิตจากพลาสติก	-9363
dict	-9364
▁Edge	-9365
▁Fore	-9366
▁adap	-9367
▁rele	-9368
▁Press	-9369
สนุกกับ	-9370
▁opinion	-9371
▁ลู	-9372
estern	-9373
จากความ	-9374
ข้อบกพร่อง	-9375
▁packaging	-9376
ก็น	-9377
ored	-9378
ppers	-9379
ทางทหาร	-9380
▁beauty	-9381
ปไ	-9382
ุทธ	-9383
จะไป	-9384
▁liter	-9385
▁century	-9386
มุน	-9387
เสาร์	-9388
▁ไง	-9389
▁Hong	-9390
▁luck	-9391
คู่มือ	-9392
ตัวคุณ	-9393
ค่อนข้างดี	-9394
▁polyamide	-9395
UP	-9396
gl	-9397
▁๒	-9398
ถอน	-9399
▁York	-9400
▁debt	-9401
▁พลัง	-9402
สูงถึง	-9403
▁Bal	-9404
key	-9405
omp	-9406
เจอกัน	-9407
คอเสื้อ	-9408
▁sausage	-9409
zy	-9410
ัวร์	-9411
▁Bud	-9412
นิยาย	-9413
▁block	-9414
▁worry	-9415
▁adhesive	-9416
▁fill	-9417
ซอฟต์แวร์	-9418
ดาวน์โหลด	-9419
oga	-9420
▁State	-9421
▁concept	-9422
▁reduction	-9423
▁วิธีดูแลรักษา	-9424
นูญ	-9425
ื้อน	-9426
ตัวยง	-9427
▁น้ําตาล	-9428
ทําจากยาง	-9429
สีสันสดใส	-9430
เทพ	-9431
▁Mag	-9432
▁Iron	-9433
ธรรมนูญ	-9434
พระองค์	-9435
สํง	-9436
▁Val	-9437
▁pool	-9438
ว่าฉัน	-9439
▁กล่าว	-9440
each	-9441
ชั้นวาง	-9442
▁ที่มาพร้อมกับ	-9443
TS	-9444
คิ้ว	-9445
จุใจ	-9446
▁CARD	-9447
อยากให้	-9448
▁tablet	-9449
▁ซึ่งมี	-9450
▁ฉันต้อง	-9451
ส่วนประกอบ	-9452
OOK	-9453
โคล	-9454
วงจร	-9455
▁hous	-9456
ที่อื่น	-9457
▁object	-9458
▁ticket	-9459
▁partners	-9460
เครื่องจักร	-9461
omb	-9462
▁Open	-9463
ปนาวุธ	-9464
นําเสนอ	-9465
▁parent	-9466
สุขภาพดี	-9467
ลดการ	-9468
▁สบาย	-9469
▁Egypt	-9470
คีย์	-9471
จะใช้	-9472
▁kinds	-9473
เป็นแฟน	-9474
▁ultimate	-9475
ged	-9476
อยล์	-9477
▁angle	-9478
▁spray	-9479
▁largest	-9480
ทําให้การ	-9481
▁Indonesia	-9482
atives	-9483
สเตนเลส	-9484
หน้าปัด	-9485
▁Middle	-9486
▁notice	-9487
▁adapter	-9488
๊ม	-9489
เชื่อมต่อกับ	-9490
Ch	-9491
นิค	-9492
▁TY	-9493
วิทยา	-9494
วิทยุ	-9495
▁padded	-9496
วัตถุดิบ	-9497
▁ไม่มีอะไร	-9498
เครื่องเล่น	-9499
ปัจจัยสนับสนุน	-9500
HA	-9501
▁pink	-9502
eramic	-9503
▁bacteria	-9504
▁dimensions	-9505
▁ใช้สําหรับ	-9506
foot	-9507
ก็มี	-9508
ขึน้	-9509
▁cast	-9510
▁videos	-9511
คาดว่าจะ	-9512
ได้สะดวก	-9513
▁University	-9514
▁lol	-9515
▁เทา	-9516
▁risk	-9517
ae	-9518
▁พอ	-9519
▁final	-9520
พิมพ์ลาย	-9521
▁express	-9522
▁oz	-9523
ไวน์	-9524
ประเมิน	-9525
เป็นแบบ	-9526
ตลับหมึก	-9527
ชะลอตัวลง	-9528
ฟร	-9529
ปไตย	-9530
power	-9531
หล่อน	-9532
เจ้าหน้าที่	-9533
ตึง	-9534
หิ้ว	-9535
▁ทัน	-9536
▁ฉันสั่ง	-9537
อัตราเงินเฟ้อ	-9538
กซ์	-9539
เอฟ	-9540
omes	-9541
▁Kong	-9542
วิปครีม	-9543
▁papers	-9544
นานาชาติ	-9545
rum	-9546
▁Sho	-9547
ishes	-9548
▁WITH	-9549
▁flaw	-9550
▁shoe	-9551
verter	-9552
▁ดัชนี	-9553
▁โมงครึ่ง	-9554
was	-9555
โน่	-9556
▁SO	-9557
ยูโร	-9558
▁PORT	-9559
▁lunch	-9560
▁ผ่านการ	-9561
สกุล	-9562
▁CONT	-9563
eal	-9564
ก้อน	-9565
▁ล้อ	-9566
▁prim	-9567
selves	-9568
▁crude	-9569
ซื้อเป็น	-9570
เร็วกว่า	-9571
▁changes	-9572
ชื่อเสียง	-9573
หลากสี	-9574
▁เชื่อม	-9575
▁Measure	-9576
▁ส่วนใหญ่	-9577
▁แต่เมื่อ	-9578
▁combination	-9579
่ย	-9580
lay	-9581
สํารวจ	-9582
▁changed	-9583
▁defense	-9584
▁ไม่เป็นไร	-9585
ยภาพ	-9586
iforn	-9587
เรียง	-9588
ถนัดมือ	-9589
▁active	-9590
▁seeing	-9591
▁ความเร็วในการ	-9592
▁GL	-9593
กระดาน	-9594
กลางคืน	-9595
▁โดยการ	-9596
▁colorful	-9597
ROL	-9598
▁quant	-9599
ให้อร่อย	-9600
▁inspection	-9601
นิส	-9602
iscal	-9603
ตั้งใจ	-9604
▁ending	-9605
วัสดุที่ใช้	-9606
▁smartphone	-9607
ที่สมบูรณ์แบบ	-9608
เรียว	-9609
ooled	-9610
▁กระชับ	-9611
กองกําลัง	-9612
▁circumference	-9613
olf	-9614
--------	-9615
DF	-9616
▁DE	-9617
สนทน	-9618
้นท์	-9619
ง่ายๆ	-9620
▁push	-9621
▁pants	-9622
▁sales	-9623
ในตลาดโลก	-9624
▁Imported	-9625
▁foundation	-9626
▁มาตรฐานไซส์	-9627
OG	-9628
ทศ	-9629
ILL	-9630
iff	-9631
▁tone	-9632
▁usage	-9633
▁อยากให้	-9634
▁Fre	-9635
▁Fire	-9636
▁holes	-9637
ศตวรรษที่	-9638
เวฟ	-9639
acket	-9640
▁Rental	-9641
วกาศ	-9642
ดีเทล	-9643
แม่น้ํา	-9644
ero	-9645
unity	-9646
หนุ่ม	-9647
อยู่น	-9648
แรงลม	-9649
▁bond	-9650
ส่งผลให้	-9651
▁America	-9652
▁ดีเลยค่ะ	-9653
เนา	-9654
▁ES	-9655
wide	-9656
ื่อบ	-9657
▁Nor	-9658
▁Cable	-9659
▁มีรอบ	-9660
▁น้ํามัน	-9661
▁Roy	-9662
▁tow	-9663
ผิวที่	-9664
เปื้อน	-9665
ลูมิเนียม	-9666
▁recently	-9667
▁remember	-9668
▁estimated	-9669
ยิง	-9670
ราก	-9671
เข็น	-9672
เซ็ต	-9673
▁ฟุต	-9674
เที่ยง	-9675
▁IPHONE	-9676
ความจริง	-9677
▁properly	-9678
สงวน	-9679
▁ทีม	-9680
▁แม่	-9681
itter	-9682
▁Band	-9683
▁Food	-9684
รางวัล	-9685
▁annoy	-9686
รูปร่าง	-9687
▁approx	-9688
▁lasting	-9689
ที่มีคุณภาพ	-9690
ชั่ว	-9691
มีระบบ	-9692
ข้อเสนอ	-9693
▁ในฐานะ	-9694
กําลังไฟ	-9695
▁highest	-9696
TA	-9697
lock	-9698
▁FREE	-9699
▁เดอะ	-9700
▁depos	-9701
▁tumble	-9702
EB	-9703
iii	-9704
▁nearly	-9705
▁solution	-9706
▁standards	-9707
มุ	-9708
▁\	-9709
จน์	-9710
▁Inf	-9711
ต่อมา	-9712
▁independ	-9713
▁กําลังไฟฟ้า	-9714
▁ประเภทสินค้า	-9715
sey	-9716
▁God	-9717
encies	-9718
▁chall	-9719
ประเด็น	-9720
▁Modern	-9721
▁accept	-9722
ํอ	-9723
▁organic	-9724
สามารถใช้	-9725
▁enjoyable	-9726
ounc	-9727
ย่อย	-9728
▁Code	-9729
▁Helps	-9730
เทลลิเจน	-9731
เคลื่อนย้าย	-9732
lor	-9733
สงบ	-9734
▁His	-9735
ฟังก์ชัน	-9736
▁cooling	-9737
ปีที่แล้ว	-9738
เสียชีวิต	-9739
▁Development	-9740
EY	-9741
ancy	-9742
body	-9743
ille	-9744
chang	-9745
มีช่อง	-9746
โรงงาน	-9747
▁Beige	-9748
▁สีฟ้า	-9749
ราคาแพง	-9750
▁walking	-9751
ที่ทํางาน	-9752
▁pig	-9753
ค์เจ็ท	-9754
▁cables	-9755
▁stimul	-9756
▁จํากัด	-9757
เอกสารได้	-9758
▁โช	-9759
agon	-9760
icks	-9761
▁OUT	-9762
▁Sk	-9763
ผลงาน	-9764
▁spin	-9765
แช่แข็ง	-9766
icles	-9767
resso	-9768
สายตา	-9769
▁disp	-9770
▁สัมผัส	-9771
ว่าคุณจะ	-9772
เข้าด้วยกัน	-9773
วัตถุประสงค์	-9774
▁́	-9775
เมซอน	-9776
▁huge	-9777
friend	-9778
สัญลักษณ์	-9779
▁ตะ	-9780
itan	-9781
outer	-9782
หน่วยงาน	-9783
ก่อนหน้านี้	-9784
▁Coll	-9785
▁Mode	-9786
ลิง	-9787
▁Gen	-9788
▁นัด	-9789
▁starts	-9790
▁shopping	-9791
สหราชอาณาจักร	-9792
เครื่องใช้ไฟฟ้า	-9793
▁กรอบ	-9794
ทางทะเล	-9795
ศักยภาพ	-9796
องค์การ	-9797
▁plugged	-9798
▁โมงเย็น	-9799
▁separately	-9800
ผลิตจากพลาสติก	-9801
avel	-9802
▁Fun	-9803
▁arch	-9804
▁weak	-9805
▁SMART	-9806
เก็บของ	-9807
▁vibrant	-9808
สะดวกในการ	-9809
▁nor	-9810
▁sir	-9811
▁สัก	-9812
ขาสั้น	-9813
▁Center	-9814
▁considered	-9815
OME	-9816
▁users	-9817
ights	-9818
ของเร	-9819
ักษณ์	-9820
▁cats	-9821
คํานวณ	-9822
▁Italy	-9823
▁sauce	-9824
ผิดปกติ	-9825
▁charged	-9826
ew	-9827
▁photo	-9828
▁กองทัพ	-9829
▁chapter	-9830
▁toe	-9831
▁ปัจ	-9832
▁train	-9833
▁discuss	-9834
▁graphic	-9835
ประเทศไทย	-9836
▁เติมเต็ม	-9837
KO	-9838
ทึ	-9839
roe	-9840
ถัก	-9841
ต่อผิว	-9842
ว่าการกระทรวง	-9843
บทบาท	-9844
▁Heat	-9845
ที่รัก	-9846
▁surround	-9847
▁องศาเซลเซียส	-9848
ารู้	-9849
▁mat	-9850
จากผู้	-9851
ที่สี่	-9852
▁shelves	-9853
ความละเอียด	-9854
▁CAR	-9855
irror	-9856
มานาน	-9857
▁Able	-9858
▁ช่วง	-9859
เหตุสม	-9860
กลางวัน	-9861
▁coupon	-9862
▁ภาค	-9863
▁Army	-9864
▁inner	-9865
อ้างอิง	-9866
▁histor	-9867
▁instantly	-9868
พยายามที่จะ	-9869
ram	-9870
▁PI	-9871
▁ลิป	-9872
▁TYPE	-9873
ในร้าน	-9874
แต่งตัว	-9875
ที่ไม่ดี	-9876
ที่มาพร้อมกับ	-9877
ELL	-9878
OSE	-9879
▁Why	-9880
▁stood	-9881
คุ้น	-9882
conut	-9883
▁vary	-9884
ความเสียหาย	-9885
UND	-9886
noon	-9887
erous	-9888
▁Pizz	-9889
เหตุสมผล	-9890
que	-9891
ORE	-9892
▁LEGO	-9893
▁Star	-9894
▁tips	-9895
estion	-9896
rystal	-9897
ลูชั่น	-9898
▁Handle	-9899
rowave	-9900
▁focus	-9901
ifornia	-9902
▁น้ําเงิน	-9903
yles	-9904
▁Ear	-9905
▁แดง	-9906
width	-9907
▁Text	-9908
▁bass	-9909
ยกเลิก	-9910
▁method	-9911
ขีปนาวุธ	-9912
ปริมาณการ	-9913
▁interior	-9914
สมเหตุสมผล	-9915
ban	-9916
▁UP	-9917
▁chann	-9918
ทึ่ง	-9919
พริก	-9920
เล่า	-9921
▁info	-9922
หน้าอก	-9923
cluding	-9924
ซับซ้อน	-9925
▁Strategy	-9926
cri	-9927
▁ISO	-9928
obile	-9929
ตอบแทน	-9930
mission	-9931
▁เกี่ยว	-9932
▁concent	-9933
▁เสื้อยืด	-9934
อค	-9935
เดล	-9936
orge	-9937
rief	-9938
โกแลต	-9939
▁Matte	-9940
▁ใช่ค่ะ	-9941
จะได้รับ	-9942
ดีเยี่ยม	-9943
ตัวเรือน	-9944
ไมโครเวฟ	-9945
วิเคราะห์	-9946
สินค้าที่	-9947
▁supported	-9948
จฉ	-9949
▁TM	-9950
anilla	-9951
▁social	-9952
▁threat	-9953
ไม่ต้องการ	-9954
หง	-9955
แลดู	-9956
▁Sun	-9957
▁Melamine	-9958
orough	-9959
อียิปต์	-9960
▁SYSTEM	-9961
▁intense	-9962
▁distance	-9963
▁currently	-9964
icit	-9965
▁Union	-9966
้นเตอร์	-9967
▁วันที่	-9968
▁absolutely	-9969
but	-9970
▁Pet	-9971
▁ord	-9972
น้ําร	-9973
▁cups	-9974
▁เร่ง	-9975
ของรัฐ	-9976
▁purpose	-9977
▁refriger	-9978
ขี่	-9979
หวะ	-9980
อริ	-9981
▁NEW	-9982
ล้างจาน	-9983
แอฟริกา	-9984
ด้วยน้ํา	-9985
▁น่าเสียดาย	-9986
▁Specifications	-9987
MO	-9988
ผิ	-9989
ฉีด	-9990
▁ol	-9991
oses	-9992
▁bur	-9993
ได้อย่างลงตัว	-9994
lla	-9995
ริญ	-9996
▁ep	-9997
▁fat	-9998
นิวเคลียร์	-9999
ugs	-10000
▁Ret	-10001
ไขมัน	-10002
ตอนที่	-10003
▁shine	-10004
▁closed	-10005
▁workout	-10006
คัพ	-10007
คูปอง	-10008
▁ring	-10009
▁Charg	-10010
▁Could	-10011
ืดหยุ่น	-10012
▁forecast	-10013
▁สําหรับการ	-10014
ไพ	-10015
EED	-10016
▁BB	-10017
▁Swe	-10018
▁trimm	-10019
▁Coated	-10020
▁flexibility	-10021
▁Er	-10022
▁Hy	-10023
▁Treat	-10024
▁output	-10025
หวังว่าจะ	-10026
ภรรยาของฉัน	-10027
▁Philippines	-10028
▁เนื้อผ้านุ่ม	-10029
▁PS	-10030
▁USA	-10031
▁โปรด	-10032
▁Found	-10033
▁doors	-10034
สักครู่	-10035
▁Includes	-10036
▁programs	-10037
▁Bo	-10038
ging	-10039
ร่วง	-10040
นิรภัย	-10041
ในที่สุด	-10042
เนื้อเรื่อง	-10043
ทาร	-10044
คารา	-10045
▁Comb	-10046
▁diss	-10047
▁พวกมัน	-10048
จ่ายเงิน	-10049
ความร่วมมือ	-10050
วไฟ	-10051
▁|||	-10052
berry	-10053
ภาชนะ	-10054
ฉันได้	-10055
▁associ	-10056
เปรียบเทียบ	-10057
▁ปริมาณความจุ	-10058
asp	-10059
▁kid	-10060
▁ชมพู	-10061
ฉะนั้น	-10062
▁source	-10063
▁ผู้ชาย	-10064
ของคุณให้	-10065
เมื่อเดือน	-10066
ในปัจจุบัน	-10067
▁Cir	-10068
▁Dress	-10069
▁saying	-10070
ชีวา	-10071
พารา	-10072
▁rob	-10073
▁spl	-10074
▁insole	-10075
▁states	-10076
▁ผลิตจากเนื้อผ้า	-10077
เพรส	-10078
แท่ง	-10079
▁แคล	-10080
มาตรา	-10081
▁Rolex	-10082
▁insert	-10083
อิงค์เจ็ท	-10084
UAL	-10085
oups	-10086
▁ออโต้	-10087
จักรยาน	-10088
ซื้อของ	-10089
▁blouse	-10090
▁ability	-10091
▁เมื่อคุณ	-10092
ัช	-10093
ไข่	-10094
Pack	-10095
ทดลอง	-10096
▁fant	-10097
▁rout	-10098
▁teach	-10099
▁bother	-10100
▁ติดตั้ง	-10101
▁silicone	-10102
▁เพื่อการ	-10103
คาม	-10104
จาง	-10105
▁rid	-10106
▁Drive	-10107
สื่อสาร	-10108
หดตัวร้อยละ	-10109
iers	-10110
ดินแดน	-10111
▁Brush	-10112
▁OR	-10113
▁นม	-10114
▁mis	-10115
▁crisp	-10116
ก่อตั้ง	-10117
จนกระทั่ง	-10118
iles	-10119
icking	-10120
▁ไม่ควร	-10121
พวกเขาก็	-10122
▁complain	-10123
▁ไม่สามารถ	-10124
ชีว	-10125
ท้า	-10126
ลิฟ	-10127
▁Rich	-10128
เครียด	-10129
▁คอกลม	-10130
▁seller	-10131
สองครั้ง	-10132
▁careful	-10133
▁disappointing	-10134
หญ้า	-10135
▁TPU	-10136
▁Zip	-10137
▁opp	-10138
▁slim	-10139
▁อะไร	-10140
▁House	-10141
▁occur	-10142
ซื้ออีก	-10143
▁ในราคา	-10144
ปรับอากาศ	-10145
หยุดทํางาน	-10146
ประธานาธิบดี	-10147
▁ล้านดอลลาร์	-10148
▁hi	-10149
verse	-10150
ensity	-10151
ติเมตร	-10152
ดําน้ํา	-10153
▁Single	-10154
▁จัดเก็บ	-10155
▁afternoon	-10156
▁strengthen	-10157
พยา	-10158
กํอน	-10159
าร์ก	-10160
▁อืม	-10161
ha	-10162
โยง	-10163
ไดร์	-10164
▁นับ	-10165
▁สัน	-10166
▁broad	-10167
▁gently	-10168
▁%	-10169
ปลด	-10170
▁rock	-10171
เด้	-10172
▁sports	-10173
▁innovative	-10174
▁ครับ	-10175
ements	-10176
▁ดีค่ะ	-10177
ชั้นกลาง	-10178
▁locking	-10179
▁ผลิตจากไม้	-10180
grade	-10181
▁Girl	-10182
▁news	-10183
ธิปไตย	-10184
▁Added	-10185
เข้ารูป	-10186
▁Unlined	-10187
▁players	-10188
▁towards	-10189
CS	-10190
ELESS	-10191
craft	-10192
ทธิพล	-10193
▁enter	-10194
กําลังไฟฟ้า	-10195
▁SET	-10196
อวกาศ	-10197
ไปเลย	-10198
▁Grand	-10199
▁Finish	-10200
ความสนใจ	-10201
▁Planning	-10202
CA	-10203
อพ	-10204
asy	-10205
ซัส	-10206
▁PER	-10207
หรือย	-10208
▁stuck	-10209
▁lovely	-10210
osp	-10211
ใดๆ	-10212
▁bye	-10213
▁sum	-10214
▁dual	-10215
ซึ่งมี	-10216
▁Roman	-10217
ategory	-10218
คาร์บอน	-10219
▁Indian	-10220
ให้ความรู้สึก	-10221
ms	-10222
คลื่น	-10223
▁Sports	-10224
่ารําคาญ	-10225
▁เรียบร้อย	-10226
บัต	-10227
ากับ	-10228
▁AMC	-10229
▁ฉันเพิ่ง	-10230
เปปเปอโรนี	-10231
▁เมื่อวันที่	-10232
ไปดู	-10233
▁Safe	-10234
กรมท่า	-10235
▁attach	-10236
▁peace	-10237
สารเคมี	-10238
▁เท่านั้น	-10239
USB	-10240
met	-10241
rier	-10242
▁ขวด	-10243
ไม่แพง	-10244
▁NESDB	-10245
ทางข้อความ	-10246
▁เพิ่มขึ้นร้อยละ	-10247
เนย	-10248
inen	-10249
aches	-10250
่องกง	-10251
▁Oper	-10252
▁haha	-10253
ต้นทุน	-10254
adem	-10255
ก๊าซ	-10256
▁lovers	-10257
▁รู้สึก	-10258
สายสะพาย	-10259
▁Internet	-10260
ด้วยเครื่อง	-10261
We	-10262
▁Sn	-10263
▁กรุ	-10264
cutive	-10265
ชาร์จไฟ	-10266
▁anymore	-10267
ไม่ทํางาน	-10268
▁delicious	-10269
▁selection	-10270
ตะวันออกเฉียง	-10271
รังสี	-10272
▁หุ้ม	-10273
ปรุงอาหาร	-10274
ทําความเย็น	-10275
▁installation	-10276
ÊÕ	-10277
ÒÃ	-10278
áÊ	-10279
èÒ	-10280
▁́§	-10281
▁บุ	-10282
▁Sov	-10283
ousand	-10284
ต้องมี	-10285
▁altern	-10286
มัดระวัง	-10287
หรือเปล่า	-10288
▁imm	-10289
▁เกา	-10290
▁influ	-10291
▁arrive	-10292
กรัฐมนตรี	-10293
▁manufacturer	-10294
ชู	-10295
pad	-10296
inct	-10297
▁shelf	-10298
IRELESS	-10299
▁บริการ	-10300
▁แขนยาว	-10301
▁ไม่มีปัญหาค่ะ	-10302
ลงไป	-10303
มาเป็น	-10304
▁Party	-10305
▁funny	-10306
▁ได้รับการ	-10307
▁supportive	-10308
▁Kh	-10309
▁cy	-10310
▁พร	-10311
▁หม้อ	-10312
พนักงาน	-10313
ลิ้นชัก	-10314
▁เต	-10315
▁ออก	-10316
บ้างคะ	-10317
เปลือก	-10318
▁มันก็	-10319
ขับเคลื่อน	-10320
หนังสือเล่มอื่น	-10321
ทาว	-10322
าดา	-10323
ledge	-10324
มีนาคม	-10325
สวิต	-10326
▁Count	-10327
▁costs	-10328
ตัวอักษร	-10329
เป็นสิ่ง	-10330
ขยายตัวใน	-10331
▁ขนาดหัวปากกา	-10332
ดุ	-10333
ตีน	-10334
▁West	-10335
ราวกับ	-10336
ปลักษณ์	-10337
บัญชาการ	-10338
▁tourism	-10339
▁การลงทุน	-10340
roeconomic	-10341
ประเภทสินค้า	-10342
ATER	-10343
▁conse	-10344
▁joint	-10345
▁ประธาน	-10346
▁หนึ่งใน	-10347
uine	-10348
รีส์	-10349
▁chic	-10350
▁spot	-10351
▁hotel	-10352
ributed	-10353
ขยายตวั	-10354
▁ด้านใน	-10355
INT	-10356
ivil	-10357
▁Buy	-10358
านั้น	-10359
แชมป์	-10360
▁predict	-10361
หลายอย่าง	-10362
▁projection	-10363
▁ฉันซื้อสิ่งนี้	-10364
tr	-10365
ุค	-10366
ไปส่ง	-10367
emporary	-10368
▁Package	-10369
▁อิ	-10370
▁und	-10371
arily	-10372
▁ข้าว	-10373
▁layer	-10374
▁คิดว่า	-10375
สนุกกับการ	-10376
ทําความร้อน	-10377
PT	-10378
ura	-10379
ules	-10380
สลาย	-10381
▁cart	-10382
▁Court	-10383
อุปสงค์	-10384
▁People	-10385
เสียงที่	-10386
ลช	-10387
slite	-10388
▁Gree	-10389
▁ระยะ	-10390
▁alone	-10391
แล้วและ	-10392
▁รายงาน	-10393
▁win	-10394
▁ไร้	-10395
aling	-10396
emble	-10397
urpose	-10398
▁fruit	-10399
▁สีแดง	-10400
ication	-10401
▁Export	-10402
▁และไม่	-10403
วันศุกร์	-10404
ระมัดระวัง	-10405
▁California	-10406
ญาณ	-10407
▁("	-10408
azer	-10409
▁Rad	-10410
เลเซอร์	-10411
▁gaming	-10412
▁incred	-10413
▁Croslite	-10414
▁otherwise	-10415
อุปกรณ์เสริม	-10416
ี้ยว	-10417
▁เอส	-10418
เศร้า	-10419
▁bowl	-10420
ในระยะ	-10421
▁slide	-10422
หมู่เกาะ	-10423
เติมเต็ม	-10424
▁Anything	-10425
ทําจากวัสดุ	-10426
ขาก	-10427
เธอน	-10428
▁Ang	-10429
▁mist	-10430
▁อาจจะ	-10431
ต้นฉบับ	-10432
ว่างงาน	-10433
▁ซักมือ	-10434
มิว	-10435
▁dishes	-10436
จักรวรรดิ	-10437
▁mushroom	-10438
สารสกัดจาก	-10439
▁เคลือบผิว	-10440
▁Come	-10441
▁ฮะฮะฮ่า	-10442
ที่ดีขึ้น	-10443
▁attached	-10444
▁กุมภาพันธ์	-10445
ดาน	-10446
แนบ	-10447
abor	-10448
fied	-10449
itute	-10450
ละมุน	-10451
เกมส์	-10452
▁loud	-10453
เดี่ยว	-10454
หรือการ	-10455
▁leading	-10456
▁starting	-10457
เชื้อเพลิง	-10458
asm	-10459
ิ้ม	-10460
▁ได	-10461
ชุมชน	-10462
สปอร์ต	-10463
ใช่ไหม	-10464
▁supports	-10465
สิทธิ์ในการ	-10466
tt	-10467
เบน	-10468
เรน	-10469
เยาว์	-10470
วยอร์ก	-10471
คุ้นเคย	-10472
เสถียรภาพ	-10473
▁Gas	-10474
▁obs	-10475
▁ใหม่	-10476
▁ขอให้มี	-10477
▁ด้ามจับ	-10478
▁เมื่อฉัน	-10479
▁ventilation	-10480
ji	-10481
พลิ	-10482
หนี	-10483
ทวีป	-10484
▁Used	-10485
สีชมพู	-10486
แท็บเล็ต	-10487
อยู่ที่ไหน	-10488
กอก	-10489
▁คา	-10490
isco	-10491
▁raw	-10492
orable	-10493
ovable	-10494
parent	-10495
ของโลก	-10496
แผ่นดิน	-10497
▁Indust	-10498
▁Moreover	-10499
oles	-10500
▁Twin	-10501
▁terrible	-10502
▁กิโลกรัม	-10503
เช่นเดียวกับ	-10504
gen	-10505
ดิส	-10506
edom	-10507
▁บัน	-10508
ค้นพบ	-10509
▁เกิด	-10510
กราฟิก	-10511
▁voice	-10512
▁origin	-10513
▁Excellent	-10514
▁ฟังก์ชั่น	-10515
AW	-10516
าร์ค	-10517
▁dig	-10518
▁dead	-10519
ลมอนด์	-10520
▁serve	-10521
▁เพิ่ง	-10522
ล้ําลึก	-10523
ในอนาคต	-10524
▁Quality	-10525
ส่วนหนึ่ง	-10526
กล้ามเนื้อ	-10527
SL	-10528
▁Best	-10529
▁pour	-10530
▁ภาษา	-10531
▁jeans	-10532
▁หวังว่า	-10533
▁container	-10534
ZZ	-10535
ชิน	-10536
▁EC	-10537
▁Who	-10538
▁เพล	-10539
ตามการ	-10540
ประชากร	-10541
▁format	-10542
▁sitting	-10543
▁โครงการ	-10544
นก	-10545
col	-10546
bles	-10547
▁loose	-10548
▁passeng	-10549
▁separate	-10550
เมษายน	-10551
เลวร้าย	-10552
▁ใบเสร็จ	-10553
▁นี่ไม่ใช่	-10554
ึ้ง	-10555
แก๊	-10556
HERS	-10557
▁sem	-10558
กลื่น	-10559
▁scenes	-10560
▁nuclear	-10561
▁students	-10562
สัตว์เลี้ยง	-10563
หลังจากนั้น	-10564
new	-10565
▁Flat	-10566
ติดกับ	-10567
▁appliances	-10568
what	-10569
▁crack	-10570
ซีแลนด์	-10571
ที่นิยม	-10572
▁ลําโพง	-10573
▁central	-10574
▁นั่นคือ	-10575
▁Manufact	-10576
▁sensitive	-10577
oli	-10578
uits	-10579
▁smo	-10580
▁mins	-10581
พยาบาล	-10582
จังหวัด	-10583
ขนาดสินค้า	-10584
พูล	-10585
▁mag	-10586
usion	-10587
venient	-10588
ข้อเท้า	-10589
artments	-10590
▁command	-10591
▁RO	-10592
ming	-10593
ิกซ์	-10594
▁obv	-10595
rying	-10596
ภาวะเศรษฐกิจ	-10597
ฉลาก	-10598
างาม	-10599
▁Mat	-10600
▁cin	-10601
สมควร	-10602
มาเลเซีย	-10603
ปกป้องผิว	-10604
▁(-	-10605
โดว์	-10606
lands	-10607
print	-10608
โปร่ง	-10609
▁bread	-10610
▁absorb	-10611
▁almond	-10612
▁compon	-10613
▁booking	-10614
▁seamless	-10615
ิธี	-10616
▁ALUM	-10617
▁cells	-10618
▁excess	-10619
อลูมิเนียม	-10620
▁supporting	-10621
uis	-10622
ซอส	-10623
ลูกไม้	-10624
▁Bella	-10625
พวกเขามี	-10626
▁monetary	-10627
▁Lux	-10628
▁sne	-10629
▁สวม	-10630
ในชุด	-10631
▁stro	-10632
▁บาร์	-10633
เปลวไฟ	-10634
หมุนได้	-10635
▁Recommend	-10636
▁พันล้านดอลลาร์	-10637
แหลม	-10638
▁Rob	-10639
มพูชา	-10640
ฝาครอบ	-10641
▁media	-10642
ทั้งคู่	-10643
ความช่วยเหลือ	-10644
kle	-10645
▁XP	-10646
เฉดสี	-10647
ต่างกัน	-10648
▁blades	-10649
▁ที่สามารถ	-10650
umps	-10651
ที่ตั้ง	-10652
ใส่สบาย	-10653
ของฉันและ	-10654
ลาก	-10655
▁ge	-10656
▁anim	-10657
▁ชาร์	-10658
ivalent	-10659
aturally	-10660
ทรัพย์สิน	-10661
▁territor	-10662
ที่จําเป็น	-10663
GA	-10664
๊ต	-10665
foam	-10666
▁SKEC	-10667
lessly	-10668
▁Cross	-10669
ological	-10670
▁release	-10671
▁ที่นั่ง	-10672
UX	-10673
▁หนู	-10674
▁thus	-10675
▁Small	-10676
ความถี่	-10677
▁ในกรณี	-10678
▁electronic	-10679
เวิร์	-10680
ท้าทาย	-10681
▁handy	-10682
วันเกิด	-10683
▁versatile	-10684
เป็นครั้งแรก	-10685
ได้จาก	-10686
ฟอกอากาศ	-10687
▁นาทีนะคะ	-10688
ศ์	-10689
hou	-10690
rain	-10691
เนิด	-10692
ushed	-10693
ไดรฟ์	-10694
▁Luna	-10695
เรื่อย	-10696
ตัวกรอง	-10697
ภาระ	-10698
สะกด	-10699
▁BPA	-10700
▁dun	-10701
olded	-10702
บรรทัด	-10703
ทรงพลัง	-10704
รายจ่าย	-10705
▁selected	-10706
ista	-10707
ties	-10708
▁Mask	-10709
เดี๋ยว	-10710
▁fiscal	-10711
▁อยากดู	-10712
▁แต่ถ้า	-10713
กลับบ้าน	-10714
ครา	-10715
โกล	-10716
▁BOD	-10717
▁Bus	-10718
หลายๆ	-10719
ปรับระดับได้	-10720
อย่างสมบูรณ์	-10721
▁หากคุณต้องการ	-10722
มล	-10723
▁BE	-10724
apid	-10725
เต็ด	-10726
นี้มา	-10727
หน้าต่าง	-10728
▁พกพาสะดวก	-10729
พรม	-10730
หลวม	-10731
อลล์	-10732
▁BRO	-10733
เซ็นต์	-10734
ง่ายมาก	-10735
▁FILTER	-10736
▁chance	-10737
▁cleaner	-10738
▁birthday	-10739
ดอน	-10740
านิ	-10741
เบส	-10742
แซม	-10743
กั้น	-10744
▁Log	-10745
▁Find	-10746
▁เห็น	-10747
▁Franc	-10748
จัดตั้ง	-10749
แห่งความ	-10750
▁shipped	-10751
ป่วย	-10752
▁qual	-10753
shaped	-10754
นี้น่า	-10755
▁remains	-10756
▁carrying	-10757
ซาก	-10758
ัตร	-10759
เดต	-10760
▁lives	-10761
▁spots	-10762
▁สไตล์	-10763
▁holder	-10764
การศึกษา	-10765
▁questions	-10766
ที่จะทําให้	-10767
▁Macroeconomic	-10768
RIG	-10769
หมดจด	-10770
ที่กําลัง	-10771
▁นอกจากนี้ยังมี	-10772
โซ่	-10773
liter	-10774
▁asked	-10775
▁corner	-10776
▁trading	-10777
▁delicate	-10778
fr	-10779
car	-10780
exp	-10781
ปรา	-10782
oors	-10783
cohol	-10784
minist	-10785
จ่ายไป	-10786
▁หน้าจอ	-10787
ใช้ในการ	-10788
สุดน่ารัก	-10789
▁certainly	-10790
▁contracted	-10791
UTO	-10792
ให๎	-10793
ห้าง	-10794
▁Enh	-10795
ของภาค	-10796
ลูกสาว	-10797
▁Soviet	-10798
▁Tumble	-10799
▁Elastic	-10800
ไม่เหมือน	-10801
▁activity	-10802
งด	-10803
เงา	-10804
inary	-10805
อบผ้า	-10806
▁Baby	-10807
▁Force	-10808
▁SPEED	-10809
▁ได้แล้ว	-10810
พรีเมี่ยม	-10811
TH	-10812
แอพ	-10813
เกีย	-10814
▁damp	-10815
ผู้ใหญ่	-10816
▁ปกป้อง	-10817
▁แค่นี้	-10818
ของสหรัฐฯ	-10819
▁particle	-10820
oto	-10821
irty	-10822
▁Each	-10823
นักพิง	-10824
ไว้ที่	-10825
▁SKECHERS	-10826
PR	-10827
▁กี	-10828
acon	-10829
▁Mer	-10830
ของเข	-10831
ธิการ	-10832
บีคิว	-10833
▁death	-10834
ในกล่อง	-10835
▁Little	-10836
อะไรเพิ่ม	-10837
เก็บรักษา	-10838
▁Cond	-10839
▁stated	-10840
กว่านั้น	-10841
▁ให้ช่วย	-10842
เปน	-10843
▁DI	-10844
itte	-10845
สรุป	-10846
▁hur	-10847
which	-10848
▁belt	-10849
ด้ามจับ	-10850
รวมทั้ง	-10851
▁regional	-10852
หลังจากที่	-10853
▁cooperation	-10854
อย่างเป็นทางการ	-10855
อล์ฟ	-10856
▁WOR	-10857
▁XXL	-10858
เมล็ด	-10859
เรียบหรู	-10860
▁initial	-10861
MB	-10862
หัน	-10863
▁เอก	-10864
▁stream	-10865
ตั๋วหนัง	-10866
▁ข้อเสีย	-10867
▁Security	-10868
▁รัฐมนตรี	-10869
ความเป็นจริง	-10870
▁COOL	-10871
ถึงการ	-10872
ที่สูง	-10873
ได้ที่	-10874
ภาพถ่าย	-10875
▁หลากสี	-10876
▁Program	-10877
▁คุณต้อง	-10878
ของญี่ปุ่น	-10879
ealand	-10880
พร้อมกัน	-10881
ไม่ว่าจะ	-10882
รายการนี้	-10883
ความรู้สึก	-10884
But	-10885
▁dont	-10886
เด็กซ์	-10887
ในระบบ	-10888
แบบนั้น	-10889
▁แต่ยัง	-10890
ข้างหน้า	-10891
▁ชะลอตัว	-10892
▁thousand	-10893
ยอดเยี่ยมมาก	-10894
ประสิทธิภาพในการ	-10895
ius	-10896
วงศ์	-10897
▁tab	-10898
▁Both	-10899
▁Pock	-10900
▁phones	-10901
▁annoying	-10902
▁humidity	-10903
ความพยายาม	-10904
▁ตัวเครื่อง	-10905
-)	-10906
pson	-10907
หลุม	-10908
asons	-10909
ที่นอน	-10910
▁traff	-10911
กําเนิด	-10912
เงินดอลลาร์	-10913
atory	-10914
ชงกาแฟ	-10915
ขัดแย้ง	-10916
▁curren	-10917
▁ฉันเคย	-10918
▁Zealand	-10919
เชื่อมโยง	-10920
afe	-10921
bor	-10922
อัป	-10923
แผง	-10924
แถลง	-10925
▁Sal	-10926
▁vel	-10927
▁Foot	-10928
▁Hair	-10929
▁middle	-10930
▁England	-10931
▁Foreign	-10932
บอกว่ามัน	-10933
เสื้อเบลาส์	-10934
รก	-10935
ดําร	-10936
โบรา	-10937
▁SIZ	-10938
▁HEPA	-10939
คุกคาม	-10940
ควรจะเป็น	-10941
ครั้งที่สอง	-10942
ราคาน้ํามันดิบ	-10943
ita	-10944
mos	-10945
▁XS	-10946
▁Pot	-10947
▁คู่	-10948
▁จะมี	-10949
▁radio	-10950
▁shade	-10951
▁breast	-10952
▁Ministry	-10953
ขยายตัวร๎อยละ	-10954
คิ	-10955
รักมัน	-10956
▁assum	-10957
เวลาที่	-10958
▁ล้านคน	-10959
▁quarters	-10960
เร็วที่สุด	-10961
▁Protection	-10962
▁ตัวอย่างเช่น	-10963
▁รอ	-10964
▁CAM	-10965
▁Rest	-10966
▁หลอด	-10967
เม็กซิ	-10968
เงินฝาก	-10969
▁ขอสงวน	-10970
▁เก้าอี้	-10971
โยก	-10972
ilet	-10973
ทราย	-10974
▁educ	-10975
▁pump	-10976
ประสาท	-10977
มกราคม	-10978
สุดยอด	-10979
▁Mouse	-10980
rophone	-10981
▁Melody	-10982
▁letter	-10983
โดด	-10984
เข็บ	-10985
▁tal	-10986
บางที	-10987
ตัวแทน	-10988
ชั้นนอก	-10989
รองพื้น	-10990
▁sectors	-10991
▁Complete	-10992
▁internet	-10993
ผ่านศูนย์กลาง	-10994
กระจายความเย็น	-10995
รับผิด	-10996
▁maint	-10997
▁wrink	-10998
▁decent	-10999
▁retail	-11000
▁persons	-11001
กลุ่มประเทศ	-11002
bel	-11003
สับสน	-11004
▁Cinem	-11005
ทะเลจีน	-11006
อิทธิพล	-11007
▁Cooled	-11008
▁thorough	-11009
▁บางครั้ง	-11010
แข็งแรงทนทาน	-11011
▁โดดเด่นด้วย	-11012
สบู่	-11013
▁cho	-11014
INDOW	-11015
▁mother	-11016
▁numbers	-11017
ว่าพวกเขา	-11018
▁responsive	-11019
▁ชี	-11020
อิตา	-11021
โบราณ	-11022
▁ผสาน	-11023
ทศวรรษ	-11024
ที่โดดเด่น	-11025
▁โครงสร้าง	-11026
II	-11027
IDE	-11028
ใส่ถุง	-11029
▁aware	-11030
▁calls	-11031
เสริมทักษะ	-11032
▁direction	-11033
การต่างประเทศ	-11034
she	-11035
ทเท	-11036
ลัก	-11037
วาย	-11038
ented	-11039
เปรย์	-11040
บรรทุก	-11041
▁guide	-11042
▁instant	-11043
BI	-11044
▁fare	-11045
isions	-11046
washer	-11047
▁Exper	-11048
▁กว้าง	-11049
ขึ้นรูป	-11050
ล้มเหลว	-11051
แต่งหน้า	-11052
ที่จะอ่าน	-11053
▁และสามารถ	-11054
apes	-11055
▁Less	-11056
▁beat	-11057
▁fing	-11058
▁errors	-11059
▁related	-11060
▁detailed	-11061
ava	-11062
พิธ	-11063
ersey	-11064
เศรษฐ	-11065
สอดคล้อง	-11066
ประสบความสําเร็จ	-11067
EAT	-11068
กรู	-11069
แบล	-11070
arian	-11071
▁Nice	-11072
ก็เป็น	-11073
พันธมิตร	-11074
▁applied	-11075
▁backpack	-11076
เห็นได้ชัด	-11077
▁สีน้ําเงิน	-11078
pite	-11079
▁nar	-11080
▁BUIL	-11081
ข้างใน	-11082
กลางแจ้ง	-11083
เรียกร้อง	-11084
ATH	-11085
earl	-11086
▁ตรง	-11087
▁ไม้	-11088
house	-11089
ommod	-11090
จังหวะ	-11091
ผู้ที่	-11092
เสมือน	-11093
▁Royal	-11094
▁Sounds	-11095
▁groups	-11096
▁elements	-11097
chi	-11098
amed	-11099
▁furn	-11100
ก่อการ	-11101
▁Amount	-11102
▁Padded	-11103
▁หลีกเลี่ยง	-11104
ุย	-11105
well	-11106
ropri	-11107
คาดว่า	-11108
▁Elastane	-11109
▁starbucks	-11110
▁treatment	-11111
๊ด	-11112
spe	-11113
▁พฤ	-11114
ards	-11115
ส่อง	-11116
ถือว่า	-11117
โปแลนด์	-11118
▁Lotion	-11119
ตั้งเวลา	-11120
▁reduced	-11121
ปริมาณสุทธิ	-11122
uls	-11123
ต่อบ	-11124
สนทนา	-11125
▁guys	-11126
▁nour	-11127
ampions	-11128
▁พฤษภาคม	-11129
val	-11130
abil	-11131
▁ang	-11132
▁basis	-11133
ลูกลื่น	-11134
▁serious	-11135
โมท	-11136
▁TB	-11137
ปรัส	-11138
▁Sam	-11139
▁คอล	-11140
ก็ยัง	-11141
โฟกัส	-11142
▁loan	-11143
ชิญ	-11144
กลไก	-11145
▁Self	-11146
กํากับ	-11147
ที่ว่าง	-11148
▁window	-11149
▁replaced	-11150
▁Foundation	-11151
ได้อย่างมั่นใจ	-11152
ees	-11153
ฝ่า	-11154
สกรีน	-11155
ไส้กรอก	-11156
▁opport	-11157
▁กระเป๋	-11158
▁WIRELESS	-11159
hour	-11160
▁GPS	-11161
▁Direct	-11162
อาหารและ	-11163
bur	-11164
▁ออน	-11165
▁Sign	-11166
▁phys	-11167
ธงชาติ	-11168
▁แต่นั่น	-11169
▁satisfied	-11170
▁generation	-11171
▁electricity	-11172
idas	-11173
ต่อวัน	-11174
▁avail	-11175
▁styles	-11176
คล้ายกัน	-11177
▁shortly	-11178
▁reviewers	-11179
ที่ดีสําหรับ	-11180
▁Ve	-11181
▁Magn	-11182
จ้างงาน	-11183
▁sensor	-11184
▁produce	-11185
สัมผัสที่	-11186
ใช้ได้กับ	-11187
▁exception	-11188
▁สามีของฉัน	-11189
▁Temperature	-11190
▁เผ	-11191
▁sole	-11192
▁tend	-11193
icated	-11194
เสิร์ฟ	-11195
▁carbon	-11196
▁elimin	-11197
สหประชาชาติ	-11198
▁Convenient	-11199
DR	-11200
term	-11201
▁nav	-11202
▁Deep	-11203
iversal	-11204
ได้หลาย	-11205
▁projected	-11206
ปรับตัวลดลง	-11207
ธนาคารพาณิชย์	-11208
เป็นเอกลักษณ์	-11209
▁ผลิตภัณฑ์ที่	-11210
ของเศรษฐกิจโลก	-11211
สิ่งที่เกิดขึ้น	-11212
IME	-11213
eed	-11214
พ่น	-11215
ปลั่ง	-11216
ตอนบ่าย	-11217
▁mostly	-11218
รอบดวงตา	-11219
▁ญี่ปุ่น	-11220
▁ก่อนอื่น	-11221
เดียวที่ฉัน	-11222
▁themselves	-11223
นโยบายการเงิน	-11224
ทําความสะอาดง่าย	-11225
iy	-11226
ริก	-11227
urch	-11228
▁Wood	-11229
▁adds	-11230
▁friendly	-11231
▁อีกมากมาย	-11232
ความบันเทิง	-11233
อินเทลลิเจน	-11234
reg	-11235
ัสดุ	-11236
▁POLY	-11237
การอ่าน	-11238
ังเคราะห์	-11239
เสธ	-11240
▁GEN	-11241
erman	-11242
ประมง	-11243
โทรหา	-11244
▁rail	-11245
▁turns	-11246
บัญญัติ	-11247
ไมโครโฟน	-11248
อะลูมิเนียม	-11249
BTU	-11250
vest	-11251
เผชิญ	-11252
ในหมวด	-11253
ผิวหนัง	-11254
▁released	-11255
▁หย	-11256
▁Bad	-11257
ญากาศ	-11258
▁therm	-11259
▁drinks	-11260
ติดทนนาน	-11261
▁อยู่ที่	-11262
employment	-11263
ใยสังเคราะห์	-11264
พ้น	-11265
มอน	-11266
ทุกๆ	-11267
ย้อน	-11268
▁JBL	-11269
▁Tri	-11270
ameras	-11271
ไม่รู้	-11272
▁Night	-11273
▁assist	-11274
▁Pacific	-11275
exclusive	-11276
สายเคเบิล	-11277
Ex	-11278
เมียม	-11279
นี้ได้	-11280
▁indoor	-11281
▁vehicles	-11282
▁approximately	-11283
Pro	-11284
หยด	-11285
▁hy	-11286
แจ็ค	-11287
ลูกชาย	-11288
▁designs	-11289
▁filters	-11290
▁ใส่สบาย	-11291
▁inspired	-11292
▁ประสิทธิภาพ	-11293
พิก	-11294
ม้า	-11295
▁IT	-11296
พูดว่า	-11297
▁theat	-11298
▁เคลื่อน	-11299
เคลื่อนที่	-11300
▁ความกว้าง	-11301
ทํางานได้อย่าง	-11302
▁Ir	-11303
▁Step	-11304
▁During	-11305
▁stable	-11306
พิธภัณฑ์	-11307
เป็นเพียง	-11308
▁เขียนลื่น	-11309
เสรี	-11310
▁flu	-11311
iment	-11312
▁gram	-11313
กันยายน	-11314
ใส่ง่าย	-11315
▁Service	-11316
▁accident	-11317
▁adjusted	-11318
▁involved	-11319
เป็นร้อยละ	-11320
▁Available	-11321
▁Synthetic	-11322
▁สามารถปรับ	-11323
ดูเหมือนว่าจะ	-11324
▁Lyft	-11325
▁Apply	-11326
▁Access	-11327
▁answer	-11328
▁visible	-11329
กางเกงยีนส์	-11330
เธอก็	-11331
▁CHAR	-11332
▁Highly	-11333
▁trimmings	-11334
ด้วยเทคโนโลยี	-11335
AMS	-11336
Color	-11337
erson	-11338
▁quiet	-11339
▁wheel	-11340
ography	-11341
▁established	-11342
▁สิ่งเหล่านี้	-11343
▁Main	-11344
ตู้เย็น	-11345
▁butter	-11346
▁shower	-11347
▁silver	-11348
▁progress	-11349
กาก	-11350
้าส์	-11351
▁แฟ้ม	-11352
ลองใช้	-11353
▁forget	-11354
▁ครั้งแรก	-11355
จากธรรมชาติ	-11356
ACE	-11357
ดีย	-11358
▁ver	-11359
▁poll	-11360
▁กรุง	-11361
▁Perform	-11362
▁Products	-11363
▁investors	-11364
▁Bet	-11365
▁role	-11366
ไม่ชอบ	-11367
▁banks	-11368
จัดขึ้น	-11369
▁grande	-11370
▁lasted	-11371
▁rising	-11372
▁spread	-11373
▁อีกทั้งยัง	-11374
▁ี	-11375
KER	-11376
เทน	-11377
▁TR	-11378
เค้ก	-11379
useum	-11380
าง่าย	-11381
▁Ball	-11382
▁Give	-11383
▁อาร์	-11384
▁reserve	-11385
▁ทั้งสอง	-11386
ฝุ่นละออง	-11387
และบริการ	-11388
▁อัปเปอร์ทําจาก	-11389
enz	-11390
สเปน	-11391
▁แต่อ	-11392
▁Paris	-11393
คนเดียว	-11394
▁aspect	-11395
▁Resolution	-11396
▁industries	-11397
▁ไม่ว่าจะเป็น	-11398
นึก	-11399
▁สห	-11400
กึ่ง	-11401
▁Heel	-11402
▁wire	-11403
ression	-11404
▁rights	-11405
▁clearly	-11406
ฉันคิดว่า	-11407
▁allowing	-11408
▁destination	-11409
▁กรณีซื้อเป็น	-11410
หนังสังเคราะห์	-11411
ปลีก	-11412
เลิฟ	-11413
▁ใคร	-11414
หน้าร	-11415
▁Cord	-11416
▁Shoe	-11417
ounced	-11418
▁Strong	-11419
ออกมาจาก	-11420
▁aluminum	-11421
บัตรเครดิต	-11422
รัฐธรรมนูญ	-11423
เสื้อเชิ้ต	-11424
URE	-11425
กลู	-11426
!!!!	-11427
uten	-11428
▁KID	-11429
▁Sup	-11430
▁ลวด	-11431
ffect	-11432
สรีระ	-11433
ในภาค	-11434
▁odor	-11435
มาแล้ว	-11436
▁weeke	-11437
▁สะโพก	-11438
quently	-11439
ที่ชาร์จ	-11440
▁Therefore	-11441
▁เซนติเมตร	-11442
กู	-11443
เจร	-11444
แร่	-11445
▁คณะ	-11446
▁นาง	-11447
▁แทน	-11448
านซิส	-11449
▁chain	-11450
ได้ง่ายๆ	-11451
▁consumer	-11452
เพลิดเพลินไปกับ	-11453
iol	-11454
mond	-11455
▁ONL	-11456
▁EXCL	-11457
▁prin	-11458
▁steps	-11459
ห่างจาก	-11460
ที่คุณจะ	-11461
▁particles	-11462
▁background	-11463
rs	-11464
IES	-11465
หุง	-11466
▁MS	-11467
▁ten	-11468
lette	-11469
▁ปลาย	-11470
ขาดดุล	-11471
▁Pizza	-11472
▁fight	-11473
▁ได้อย่าง	-11474
▁อย่างน้อย	-11475
ปัน	-11476
มืด	-11477
▁LG	-11478
ITAL	-11479
phere	-11480
กับฉัน	-11481
สมจริง	-11482
▁units	-11483
igation	-11484
▁section	-11485
▁featuring	-11486
ga	-11487
osh	-11488
▁ผล	-11489
lebr	-11490
ผึ้ง	-11491
เจริญ	-11492
และดู	-11493
▁tall	-11494
imming	-11495
urance	-11496
เหรอคะ	-11497
▁Toner	-11498
▁Coffee	-11499
▁floral	-11500
นักเขียน	-11501
▁authors	-11502
ที่จะซื้อ	-11503
ที่มีประสิทธิภาพ	-11504
▁บท	-11505
▁sou	-11506
กี่คน	-11507
▁emerg	-11508
▁tested	-11509
▁ไม่ล่ะ	-11510
อัลมอนด์	-11511
อีกไหมคะ	-11512
▁finding	-11513
เสียงรบกวน	-11514
▁comfortably	-11515
รั่ม	-11516
วลต์	-11517
▁snap	-11518
▁ได้สิ	-11519
อายุสินค้าน	-11520
ืดอายุการใช้งาน	-11521
ห่อ	-11522
Shirt	-11523
USIVE	-11524
ประทาน	-11525
▁Serum	-11526
ยุ่งยาก	-11527
▁motion	-11528
▁creating	-11529
▁imported	-11530
▁effectively	-11531
HS	-11532
ยินดี	-11533
ที่ผลิต	-11534
▁chocolate	-11535
cer	-11536
เกร	-11537
▁DRI	-11538
▁เจอ	-11539
ไปให้	-11540
▁juice	-11541
▁Removable	-11542
HZ	-11543
ari	-11544
มส์	-11545
zone	-11546
▁sale	-11547
▁pillow	-11548
ของเครื่อง	-11549
ซักเครื่องได้	-11550
บี้	-11551
ซ่อน	-11552
แมทช์	-11553
ทุกชนิด	-11554
▁finger	-11555
▁EXCLUSIVE	-11556
▁organized	-11557
▁entertaining	-11558
ulf	-11559
ขุม	-11560
▁labor	-11561
▁spent	-11562
▁encour	-11563
▁creates	-11564
▁พรุ่งนี้	-11565
▁appreciate	-11566
HI	-11567
▁Many	-11568
▁ขั้น	-11569
การพัฒนา	-11570
เสียงดัง	-11571
เสียเวลา	-11572
▁damaged	-11573
▁lighting	-11574
▁ออกแบบมา	-11575
และการลงทุน	-11576
▁arr	-11577
▁Prof	-11578
▁Epson	-11579
ที่ชัดเจน	-11580
หมายความว่า	-11581
กก	-11582
แคม	-11583
มัลติ	-11584
▁Warm	-11585
▁ports	-11586
▁heating	-11587
▁talking	-11588
▁เมื่อเทียบกับ	-11589
▁Bi	-11590
This	-11591
ogue	-11592
พุทธ	-11593
ondon	-11594
เราก็	-11595
▁CASE	-11596
▁Road	-11597
▁latte	-11598
มันไม่ได้	-11599
ใช้สําหรับ	-11600
▁Measurement	-11601
ธา	-11602
ศิลปิน	-11603
▁advice	-11604
หรืออะไร	-11605
▁สอดคล้อง	-11606
%•	-11607
ซาบ	-11608
▁:–	-11609
▁Printer	-11610
คุณภาพของ	-11611
รูปลักษณ์	-11612
▁football	-11613
▁แต่ไม่มี	-11614
▁ขอบคุณนะคะ	-11615
สัมผัสที่นุ่ม	-11616
อะไรอีกมั้ยคะ	-11617
จม	-11618
▁Lens	-11619
▁util	-11620
หลอดไฟ	-11621
▁Trade	-11622
▁supple	-11623
▁yellow	-11624
▁Speaker	-11625
ที่อยู่ใน	-11626
ให้ข้อมูล	-11627
ใต	-11628
ISS	-11629
ocr	-11630
็อบ	-11631
▁แผง	-11632
riched	-11633
▁nature	-11634
เอเอ็มซี	-11635
▁markets	-11636
ด้วยวัสดุ	-11637
สตั	-11638
กล้า	-11639
▁!!!	-11640
พันธ์	-11641
▁HOME	-11642
▁advent	-11643
▁aluminium	-11644
สืบ	-11645
ไซด์	-11646
▁cos	-11647
เป็นผล	-11648
สภาพอากาศ	-11649
กับการซื้อ	-11650
▁continuously	-11651
วาว	-11652
ฉลาด	-11653
▁Mor	-11654
▁reve	-11655
▁เกรด	-11656
บรรยาย	-11657
และผู้	-11658
▁รูปทรง	-11659
▁complexion	-11660
irts	-11661
▁toys	-11662
สําเนา	-11663
ประจําปี	-11664
▁garment	-11665
▁กันยายน	-11666
▁มาตรฐาน	-11667
การควบคุม	-11668
บาก	-11669
สะเท	-11670
▁TIS	-11671
▁gone	-11672
IGITAL	-11673
ทีหลัง	-11674
ฮ่องกง	-11675
ส่วนของ	-11676
▁Camera	-11677
▁fairly	-11678
ก็สามารถ	-11679
นิดหน่อย	-11680
ส่วนเกิน	-11681
ครึ่งหลัง	-11682
▁property	-11683
ถ่ายเอกสาร	-11684
mar	-11685
แคบ	-11686
งดงาม	-11687
พล็อต	-11688
▁hole	-11689
▁rain	-11690
INDOWS	-11691
เซ็กส์	-11692
ในด้าน	-11693
▁Laser	-11694
▁League	-11695
เป็นหนึ่งใน	-11696
TE	-11697
king	-11698
ตํารวจ	-11699
ได้ดีมาก	-11700
▁ฉันดีใจ	-11701
▁produced	-11702
ล่ะคะ	-11703
▁Cath	-11704
▁iced	-11705
iction	-11706
ไม่ติด	-11707
▁เข้าร	-11708
theless	-11709
สติกเกอร์	-11710
▁discover	-11711
XT	-11712
ชิค	-11713
ทวน	-11714
หนวด	-11715
เห็ด	-11716
▁เบา	-11717
ittee	-11718
▁tough	-11719
▁Second	-11720
▁depreci	-11721
▁accommod	-11722
▁contrast	-11723
▁ตอนนี้ฉัน	-11724
อย่างชัดเจน	-11725
ต้อน	-11726
ยุติ	-11727
▁คิว	-11728
▁soap	-11729
นี้และ	-11730
ถ่ายโอน	-11731
▁Medium	-11732
อีกหนึ่ง	-11733
▁Essence	-11734
▁cameras	-11735
expensive	-11736
ของกองทัพ	-11737
▁smoothly	-11738
▁attractive	-11739
▁refreshing	-11740
สับ	-11741
▁PAN	-11742
▁burn	-11743
ซีรีส์	-11744
▁plants	-11745
▁promot	-11746
▁อย่าซื้อ	-11747
ที่รวดเร็ว	-11748
ฮา	-11749
ELF	-11750
nes	-11751
ros	-11752
wor	-11753
▁SF	-11754
นิ่ม	-11755
เล็บ	-11756
iation	-11757
กัมพูชา	-11758
ต่างหาก	-11759
▁Bottom	-11760
▁Whether	-11761
ดังนั้นจึง	-11762
▁confirmed	-11763
ร่ม	-11764
▁ID	-11765
aked	-11766
หลาน	-11767
▁decl	-11768
atever	-11769
อยู่เสมอ	-11770
ใช้งานไม่ได้	-11771
อูเบอร์เอ็กซ์	-11772
▁	-11773
▁ตรา	-11774
ูปแบบ	-11775
unched	-11776
ตะเข็บ	-11777
ประการ	-11778
มีความทนทาน	-11779
แลน	-11780
ที่อาจ	-11781
อบแห้ง	-11782
▁worst	-11783
ถอดออกได้	-11784
▁ส่งผลให้	-11785
▁จึงทําให้	-11786
▁เนื่องจากการ	-11787
ria	-11788
พวง	-11789
uled	-11790
▁Emp	-11791
▁Tom	-11792
▁ตลอด	-11793
ผู้อ่าน	-11794
▁Contin	-11795
ห้องครัว	-11796
▁growing	-11797
หลังจากการ	-11798
▁ในไตรมาสแรก	-11799
MP	-11800
สากล	-11801
สะพัด	-11802
▁Nope	-11803
▁Term	-11804
▁worn	-11805
ไม่น่า	-11806
▁famous	-11807
▁fabrics	-11808
▁เกี่ยวกับ	-11809
ม์	-11810
ลึ	-11811
vet	-11812
เพาะ	-11813
▁sad	-11814
▁หมด	-11815
ภูเขา	-11816
ifully	-11817
ไอเท็ม	-11818
▁เฟอร์	-11819
▁Africa	-11820
▁London	-11821
▁silhou	-11822
ที่ดีและ	-11823
ใช้งานได้อย่าง	-11824
ถอย	-11825
ทําร	-11826
มีคน	-11827
▁fly	-11828
order	-11829
เลยนะ	-11830
ซักฟอก	-11831
ว่าเขา	-11832
อลเลย์	-11833
ช่องใส่	-11834
ออกเป็น	-11835
▁Chrome	-11836
▁downward	-11837
และอุปกรณ์	-11838
ads	-11839
ษัต	-11840
แฮม	-11841
▁บี	-11842
.....	-11843
iquid	-11844
ษัตริ	-11845
▁glow	-11846
เท่าไร	-11847
นวนิยาย	-11848
▁อันนี้	-11849
ก้าวเดิน	-11850
▁Central	-11851
เพิ่มสูงขึ้น	-11852
ไพร	-11853
uous	-11854
▁tro	-11855
heast	-11856
เซราม	-11857
▁Base	-11858
▁เสีย	-11859
ทรงตัว	-11860
ภาพรวม	-11861
▁Audio	-11862
ษัตริย์	-11863
▁Social	-11864
▁greater	-11865
▁accurate	-11866
▁microwave	-11867
▁precision	-11868
เหม	-11869
dler	-11870
flow	-11871
▁Real	-11872
▁shot	-11873
ให้เธอ	-11874
▁blood	-11875
▁femin	-11876
▁ภายใต้	-11877
อ่อนนุ่ม	-11878
▁knowledge	-11879
▁continuous	-11880
kel	-11881
้าระ	-11882
สูจน์	-11883
การเมือง	-11884
ลายพิมพ์	-11885
▁naturally	-11886
▁พร้อมทั้ง	-11887
▁โพลีเอสเตอร์	-11888
กุด	-11889
omin	-11890
ี่ใบ	-11891
มากับ	-11892
ึดอัด	-11893
▁suit	-11894
▁Flash	-11895
อลเลย์บอล	-11896
ให้กับคุณ	-11897
▁เพลิดเพลิน	-11898
ไม่จําเป็นต้อง	-11899
▁โฟ	-11900
infor	-11901
▁เข็ม	-11902
▁beach	-11903
▁Pencil	-11904
คีย์บอร์ด	-11905
▁revision	-11906
▁พิมพ์ลาย	-11907
▁inexpensive	-11908
ําเข้าจากประเทศ	-11909
รีบ	-11910
ares	-11911
▁hon	-11912
แต่งงาน	-11913
▁Russia	-11914
▁แบรนด์	-11915
ของคุณจะ	-11916
▁edition	-11917
▁reduces	-11918
สําหรับคน	-11919
สามีของฉัน	-11920
▁compartments	-11921
wr	-11922
ASH	-11923
▁Da	-11924
▁Pig	-11925
เกลียว	-11926
เป็นไป	-11927
▁annual	-11928
ปั่นแห้ง	-11929
▁Defense	-11930
▁ไม่แน่ใจว่า	-11931
ede	-11932
acer	-11933
▁Fine	-11934
▁palm	-11935
▁belie	-11936
▁booth	-11937
▁สวยงาม	-11938
▁และราคา	-11939
ยังไม่ได้	-11940
▁removable	-11941
ม้วน	-11942
▁Too	-11943
ฟอร์ม	-11944
▁Once	-11945
▁adding	-11946
▁anyway	-11947
แตกต่างจาก	-11948
▁สด	-11949
tein	-11950
ไม่มาก	-11951
itating	-11952
▁winter	-11953
▁achieve	-11954
ทะเลจีนใต้	-11955
▁traveling	-11956
หนังเรื่องนี้	-11957
ec	-11958
ek	-11959
จญ	-11960
ฟิ	-11961
ulse	-11962
พัดลม	-11963
▁slot	-11964
▁bigger	-11965
▁bottles	-11966
คุณภาพเสียง	-11967
SW	-11968
ล้า	-11969
เมล์	-11970
▁PHIL	-11971
▁fuel	-11972
▁น้อย	-11973
เอาชนะ	-11974
ชายฝั่ง	-11975
lin	-11976
ม่า	-11977
▁HA	-11978
วยาง	-11979
▁ไว้	-11980
night	-11981
▁jour	-11982
▁fixed	-11983
▁afford	-11984
▁square	-11985
ชัย	-11986
เฟ่	-11987
▁AAA	-11988
▁Ult	-11989
▁คอน	-11990
▁Hope	-11991
▁snug	-11992
อะไรที่	-11993
▁staple	-11994
ไปกับการ	-11995
anned	-11996
▁acid	-11997
▁bacon	-11998
ต้านทาน	-11999
▁Associ	-12000
▁สํานัก	-12001
▁drivers	-12002
▁falling	-12003
ส่วนบุคคล	-12004
อะแดปเตอร์	-12005
บล	-12006
รึ	-12007
aco	-12008
zen	-12009
รรย์	-12010
เท็จ	-12011
ของผิว	-12012
▁คืนนี้	-12013
▁holiday	-12014
▁employment	-12015
▁breathability	-12016
▁CR	-12017
▁มอง	-12018
▁wine	-12019
ก่อนที่	-12020
ทรัพยาก	-12021
▁indicator	-12022
▁transform	-12023
▁ห้ามใช้น้ํายา	-12024
ศว	-12025
AIN	-12026
ช่วยลด	-12027
ว่าเธอ	-12028
ไปหน่อย	-12029
ฤษฎ	-12030
▁Fu	-12031
ขุมขน	-12032
จะให้	-12033
▁Core	-12034
▁Sharp	-12035
▁โดยที่	-12036
แก้ปัญหา	-12037
แม้ว่าจะ	-12038
▁culture	-12039
สินค้านี้	-12040
เป็นหนังสือ	-12041
yn	-12042
▁ไส้	-12043
คอมมิว	-12044
▁ensures	-12045
ประมาณการครั้ง	-12046
▁สุ	-12047
ที่ติ	-12048
เงางาม	-12049
▁Custom	-12050
▁Inside	-12051
▁Winter	-12052
เครื่องยนต์	-12053
ady	-12054
สระ	-12055
▁BT	-12056
cean	-12057
รื่น	-12058
ารับ	-12059
คําตอบ	-12060
ต่ําสุด	-12061
รุ่นนี้	-12062
▁attack	-12063
▁Printed	-12064
เดินสะพัด	-12065
▁หนังสือเล่ม	-12066
ITA	-12067
ตตา	-12068
▁JP	-12069
▁ไน	-12070
พรรดิ	-12071
▁Lite	-12072
ุปกรณ์	-12073
▁flame	-12074
รัฐมนตรี	-12075
▁พี่อยาก	-12076
prop	-12077
เด็จ	-12078
▁COL	-12079
▁Wal	-12080
▁hit	-12081
itors	-12082
piece	-12083
ตัดไฟ	-12084
าก่อน	-12085
เพอร์	-12086
▁Resp	-12087
▁Wear	-12088
นักเรียน	-12089
▁requires	-12090
ก่อการร้าย	-12091
▁officials	-12092
นวด	-12093
ะไร	-12094
▁FW	-12095
ศึกษ	-12096
ตั๋วก	-12097
ustain	-12098
การแสดง	-12099
▁parents	-12100
▁question	-12101
รอยขีดข่วนได้ดี	-12102
▁pu	-12103
cont	-12104
แชร์	-12105
▁Draw	-12106
▁PAZZ	-12107
▁weap	-12108
ศจรรย์	-12109
นิเจอร์	-12110
▁eating	-12111
หนึ่งที่	-12112
▁combined	-12113
▁combines	-12114
▁ฉันจะไม่	-12115
▁พฤศจิกายน	-12116
ิญ	-12117
▁tim	-12118
iring	-12119
▁Still	-12120
▁stain	-12121
ที่จะใช้	-12122
▁deficit	-12123
ของคุณได้	-12124
▁มันใช้งานได้ดี	-12125
▁OT	-12126
enic	-12127
ปลุก	-12128
▁LOL	-12129
สมมติ	-12130
▁Life	-12131
istics	-12132
ของนาย	-12133
▁timer	-12134
ขสิทธิ์	-12135
ของขนาด	-12136
จับเวลา	-12137
ชั้นนํา	-12138
▁Francisco	-12139
▁Performance	-12140
ca	-12141
ปืน	-12142
พึ่ง	-12143
▁Rib	-12144
itime	-12145
็ดลับ	-12146
▁comfy	-12147
▁จะไม่	-12148
▁respond	-12149
▁คาดว่าจะ	-12150
ด้วยตัวเอง	-12151
▁สําหรับฉัน	-12152
OF	-12153
้ด	-12154
ANI	-12155
กัก	-12156
นิสต์	-12157
สองใบ	-12158
▁ship	-12159
การบิน	-12160
ขาวดํา	-12161
▁artic	-12162
การซื้อ	-12163
▁สินค้าน	-12164
▁สีเขียว	-12165
ห้ามใช้ผง	-12166
▁Silicone	-12167
▁silhouette	-12168
เกี่ยวข้องกับ	-12169
ALL	-12170
▁CA	-12171
ฮอล์	-12172
presso	-12173
ให้ค่ะ	-12174
▁Spain	-12175
▁สาธาร	-12176
ที่กําหนด	-12177
อาจจะแตกต่างกัน	-12178
อาณ	-12179
anna	-12180
▁เกล	-12181
กร้าน	-12182
สมาคม	-12183
ต่อกัน	-12184
▁sporty	-12185
ตัวยงของ	-12186
▁Moisture	-12187
▁statement	-12188
ใส่เอกสารขนาด	-12189
เนส	-12190
▁lace	-12191
▁Razer	-12192
▁cycle	-12193
▁determ	-12194
Po	-12195
och	-12196
ียู	-12197
earch	-12198
thlet	-12199
จอห์น	-12200
พิถัน	-12201
ในโลก	-12202
ขาตั้ง	-12203
▁Health	-12204
▁showed	-12205
▁ชะลอลง	-12206
▁เพื่อย	-12207
▁charges	-12208
รูปภาพที่แสดง	-12209
ki	-12210
ICE	-12211
bye	-12212
▁Sir	-12213
embly	-12214
▁Goga	-12215
▁Store	-12216
▁กระจก	-12217
โดยทั่วไป	-12218
ความเสี่ยง	-12219
▁surprised	-12220
▁รองเท้าลําลอง	-12221
▁Hu	-12222
พิธี	-12223
อาทิ	-12224
rylic	-12225
สตรีท	-12226
onomic	-12227
ระบุว่า	-12228
ไปจนถึง	-12229
▁Square	-12230
▁texted	-12231
▁romance	-12232
การประชุม	-12233
และทําให้	-12234
ฮี	-12235
pre	-12236
ี้อ	-12237
▁Cold	-12238
▁FM	-12239
โบว์	-12240
จญภัย	-12241
โปรโม	-12242
▁none	-12243
▁กาแฟ	-12244
ส่งมอบ	-12245
▁moved	-12246
ตัวโปรด	-12247
ทิ้งไว้	-12248
พันธบัตร	-12249
▁elsewhere	-12250
▁Nevertheless	-12251
ka	-12252
TON	-12253
rup	-12254
ณีต	-12255
ests	-12256
▁wal	-12257
▁กรม	-12258
▁ดิน	-12259
owers	-12260
ของคน	-12261
เลียม	-12262
ีพิถัน	-12263
▁POWER	-12264
▁rated	-12265
มาเพื่อ	-12266
ให้คุณได้เลือก	-12267
์ด	-12268
วิก	-12269
คอร์	-12270
่นั้น	-12271
▁Group	-12272
คาราเมล	-12273
▁protector	-12274
เครื่องหมาย	-12275
▁accelerated	-12276
▁significant	-12277
บัญชีเดินสะพัด	-12278
rote	-12279
ทําใน	-12280
▁Game	-12281
▁หลาย	-12282
ประมวล	-12283
▁upward	-12284
ก็ไม่ได้	-12285
▁promote	-12286
▁ทุ่มค่ะ	-12287
▁considering	-12288
ชร	-12289
deg	-12290
▁Ol	-12291
lege	-12292
roll	-12293
▁AIR	-12294
▁Vac	-12295
▁tem	-12296
ละกัน	-12297
▁Steam	-12298
▁resid	-12299
▁computers	-12300
ทารก	-12301
โมสร	-12302
▁gsm	-12303
idges	-12304
▁neat	-12305
บทความ	-12306
▁court	-12307
▁relig	-12308
▁peppers	-12309
▁ฉันอ่าน	-12310
เสียงเพลง	-12311
▁สายสะพาย	-12312
▁experienced	-12313
▁ในไตรมาสที่สอง	-12314
ยั้ง	-12315
▁cit	-12316
ested	-12317
ในบาง	-12318
นี้อาจ	-12319
▁poorly	-12320
▁aircraft	-12321
▁ด้วยความ	-12322
ในท้องถิ่น	-12323
▁Beautiful	-12324
▁โอเคมั้ยคะ	-12325
ซีด	-12326
เอล	-12327
ซ้อม	-12328
ผลัก	-12329
adium	-12330
ossom	-12331
▁Plug	-12332
ปฏิเสธ	-12333
▁scale	-12334
▁Secret	-12335
มิถุนายน	-12336
▁traffic	-12337
▁handling	-12338
เท่าไหร่คะ	-12339
▁แต่ไม่ใช่	-12340
ประหยัดพลังงาน	-12341
▁ถูกต้องมั้ยคะ	-12342
บีบ	-12343
อยูํ	-12344
▁มือ	-12345
▁แสน	-12346
ครราช	-12347
▁Stap	-12348
▁usual	-12349
หลักฐาน	-12350
▁เข้าใจ	-12351
▁suction	-12352
▁ฟังดูดี	-12353
พิถีพิถัน	-12354
▁เชื่อมต่อ	-12355
จง	-12356
ลี่	-12357
สง่	-12358
หายใจ	-12359
ผิวให้	-12360
อึดอัด	-12361
▁brief	-12362
ลิปสติก	-12363
เกษตรกร	-12364
งานพิมพ์	-12365
▁Optical	-12366
ช่วยในการ	-12367
ที่ถูกต้อง	-12368
ผลกระทบจาก	-12369
▁Certified	-12370
▁processing	-12371
เกส	-12372
▁Aw	-12373
ต่อน	-12374
▁MOD	-12375
กับผู้	-12376
▁น่าจะ	-12377
กรกฎาคม	-12378
▁removed	-12379
▁totally	-12380
คอมมิวนิสต์	-12381
เป็นอย่างดี	-12382
▁containing	-12383
ความสามารถในการ	-12384
EE	-12385
WN	-12386
RES	-12387
UNG	-12388
▁knit	-12389
urious	-12390
ที่ว่า	-12391
▁Microsoft	-12392
▁การส่งออก	-12393
▁ทุ่มครึ่ง	-12394
▁สินค้ารับประกัน	-12395
▁ผ	-12396
ําง	-12397
ิตี้	-12398
▁APP	-12399
ากลาง	-12400
ไปสู่	-12401
▁Cypr	-12402
▁ช่วยลด	-12403
เชื่อว่า	-12404
ทางการค้า	-12405
▁recharge	-12406
หลักทรัพย์	-12407
▁published	-12408
SD	-12409
จอดรถ	-12410
ทั้งปี	-12411
achable	-12412
▁member	-12413
▁แต่ว่า	-12414
เมื่อเรา	-12415
propylene	-12416
▁cleansing	-12417
▁practical	-12418
▁พร้อมให้คุณ	-12419
FIT	-12420
ซึ้ง	-12421
rough	-12422
หาริม	-12423
ESSION	-12424
ด้วยนะ	-12425
พิสูจน์	-12426
เงินทุน	-12427
▁นอกเหนือ	-12428
ฟา	-12429
ดัก	-12430
▁Camb	-12431
▁busy	-12432
▁Liquid	-12433
▁ลายพิมพ์	-12434
แสงอาทิตย์	-12435
equ	-12436
▁Fac	-12437
ESSOR	-12438
บลูทู	-12439
เขาก็	-12440
▁Mich	-12441
▁Tech	-12442
▁visc	-12443
ของไทย	-12444
▁Cinnam	-12445
▁Cyprus	-12446
▁minimal	-12447
DER	-12448
▁pa	-12449
ฤษฎี	-12450
หรี่	-12451
▁ทาน	-12452
▁จะให้	-12453
▁stress	-12454
▁zipped	-12455
เพิ่มการ	-12456
▁somewhat	-12457
▁มิถุนายน	-12458
▁รองเท้าแตะ	-12459
▁เจ้าหน้าที่	-12460
ago	-12461
โทนสี	-12462
▁Lace	-12463
▁calc	-12464
▁meal	-12465
pected	-12466
กดปุ่ม	-12467
▁crafted	-12468
▁ที่ร้าน	-12469
▁benefits	-12470
▁changing	-12471
▁registered	-12472
ใส่ถุงตาข่าย	-12473
ภาร	-12474
อิรัก	-12475
ฮาร์ด	-12476
▁youth	-12477
▁กรุณา	-12478
ตัวเล็ก	-12479
▁drying	-12480
▁deposit	-12481
อ่อนเยาว์	-12482
▁highlight	-12483
▁CrosliteTM	-12484
ลาด	-12485
เลน	-12486
▁mot	-12487
▁Budd	-12488
▁Orig	-12489
▁wrote	-12490
▁ยังคง	-12491
พับเก็บ	-12492
▁brings	-12493
สิ่งอื่น	-12494
เวลานั้น	-12495
▁ด้วยชุด	-12496
ให้แน่ใจว่า	-12497
▁ศ	-12498
ซีน	-12499
ลีก	-12500
▁CE	-12501
คมไฟ	-12502
แก๊ส	-12503
▁bub	-12504
▁ward	-12505
▁ดูแล	-12506
ชะลอลง	-12507
นี้อีก	-12508
▁width	-12509
▁former	-12510
ropriate	-12511
▁Extract	-12512
▁Private	-12513
▁Spandex	-12514
▁สํานักงาน	-12515
ภาคครัวเรือน	-12516
AV	-12517
คิน	-12518
REEN	-12519
watch	-12520
▁BODY	-12521
▁arom	-12522
undred	-12523
▁Boost	-12524
▁Ready	-12525
▁outfit	-12526
▁freedom	-12527
เนื้อครีม	-12528
▁Otherwise	-12529
▁ปากกาลูกลื่น	-12530
ICK	-12531
roy	-12532
ตัล	-12533
neck	-12534
วัสด	-12535
▁Crocs	-12536
▁Shirt	-12537
▁ยังไง	-12538
ทําให้อ	-12539
น้ําร้อน	-12540
▁Organic	-12541
▁follows	-12542
▁helping	-12543
▁Essential	-12544
▁returning	-12545
มัง	-12546
part	-12547
label	-12548
▁Club	-12549
▁cash	-12550
▁ปลอก	-12551
ได้อีก	-12552
เป็นของ	-12553
▁Volume	-12554
▁luxury	-12555
▁stains	-12556
▁บันทึก	-12557
▁availability	-12558
ris	-12559
isex	-12560
▁Pop	-12561
▁อัล	-12562
โรแมน	-12563
▁ends	-12564
ouncil	-12565
▁Stand	-12566
▁twist	-12567
▁Breath	-12568
▁ให้การ	-12569
ลูกสาวของฉัน	-12570
กําลังการผลิต	-12571
▁;	-12572
ว่น	-12573
water	-12574
orated	-12575
▁Upper	-12576
ใกล้กับ	-12577
▁preference	-12578
ลอย	-12579
จะซื้อ	-12580
iveness	-12581
อยู่ค่ะ	-12582
▁issued	-12583
▁prints	-12584
ที่เขียน	-12585
ห้องน้ํา	-12586
บาร์บีคิว	-12587
สงครามโลก	-12588
กําไร	-12589
▁compare	-12590
▁Flexible	-12591
ตามธรรมชาติ	-12592
▁ปรับตัวดีขึ้น	-12593
๋ง	-12594
กราน	-12595
คว้า	-12596
ตุเกส	-12597
▁chap	-12598
▁กิโล	-12599
▁สุนัข	-12600
▁nations	-12601
▁ฉันหวังว่า	-12602
▁รายละเอียด	-12603
ปั๊ม	-12604
▁alarm	-12605
▁Carbon	-12606
▁science	-12607
คละ	-12608
▁Tur	-12609
▁Push	-12610
▁tear	-12611
▁brain	-12612
เอาเป็น	-12613
▁nation	-12614
▁transl	-12615
เย็นสบาย	-12616
ตอ	-12617
มิล	-12618
▁Firm	-12619
▁Vent	-12620
▁club	-12621
▁ม้วน	-12622
asters	-12623
▁ที่คุณ	-12624
▁Running	-12625
▁operations	-12626
ipl	-12627
จุก	-12628
ทรี	-12629
ในหลาย	-12630
▁James	-12631
▁mixed	-12632
▁Econom	-12633
ทรัพยากร	-12634
▁selling	-12635
▁specially	-12636
rastructure	-12637
ลูกชายของฉัน	-12638
▁subs	-12639
▁Active	-12640
▁Create	-12641
▁เมษายน	-12642
พบว่ามัน	-12643
▁สีกรมท่า	-12644
จนถึงตอนนี้	-12645
▁อัตราเงินเฟ้อ	-12646
ด้า	-12647
▁soy	-12648
igned	-12649
▁porn	-12650
▁สนาม	-12651
▁ห่วง	-12652
▁signs	-12653
▁Cambod	-12654
▁vegetables	-12655
▁แคลิฟอร์เนีย	-12656
เร็ง	-12657
▁รอย	-12658
▁View	-12659
▁died	-12660
จากที่	-12661
อํานวย	-12662
และใช้	-12663
ปรับได้	-12664
และไม่มี	-12665
▁radiant	-12666
เดินทางไป	-12667
▁affected	-12668
อย่างหนึ่ง	-12669
ในครอบครัว	-12670
▁expecting	-12671
สักครู่นะคะ	-12672
LD	-12673
ซิง	-12674
▁BR	-12675
rupt	-12676
▁lor	-12677
กันรอย	-12678
วิธีใช้	-12679
ใกล้ชิด	-12680
structed	-12681
▁agencies	-12682
ต้องการให้	-12683
▁connector	-12684
จั	-12685
ฮาว	-12686
ASTIC	-12687
▁brew	-12688
แนวตั้ง	-12689
▁เป็นผล	-12690
▁wanting	-12691
ตั๋วกี่ใบ	-12692
▁สาธารณรัฐ	-12693
▁รวมทั้งการ	-12694
▁°	-12695
IGH	-12696
fect	-12697
จบลง	-12698
ารีส	-12699
เต้า	-12700
▁บาย	-12701
cause	-12702
ulous	-12703
ฉันมี	-12704
เฟิร์	-12705
เยือน	-12706
▁อาทิ	-12707
ชายหาด	-12708
ชนะเลิศ	-12709
▁zipper	-12710
▁animals	-12711
▁enhanced	-12712
▁notebook	-12713
▁reliable	-12714
เศรษฐกิจมห	-12715
▁Featuring	-12716
ตะวันออกเฉียงใต้	-12717
็กซัส	-12718
▁Disc	-12719
▁glue	-12720
จดหมาย	-12721
▁plain	-12722
urities	-12723
และมันก็	-12724
ให้คะแนน	-12725
และสามารถ	-12726
GL	-12727
รู้อ	-12728
ากระ	-12729
▁EAS	-12730
bound	-12731
▁Grip	-12732
การจอง	-12733
คลิปหนีบ	-12734
▁Cushion	-12735
▁sending	-12736
ธรรมเนียม	-12737
ในการผลิต	-12738
▁recording	-12739
▁thoroughly	-12740
▁หลังจากนั้น	-12741
▁specifically	-12742
อูเบอร์เอ็กซ์แอล	-12743
ชุบ	-12744
ager	-12745
าหาร	-12746
▁แอน	-12747
inery	-12748
itech	-12749
คล้ํา	-12750
ทาวน์	-12751
▁duty	-12752
▁wrist	-12753
คืออะไร	-12754
สีเหลือง	-12755
▁styling	-12756
▁Carelabel	-12757
รู้สึกเหมือน	-12758
สแกน	-12759
▁heads	-12760
▁lumin	-12761
▁Copy	-12762
ที่ผสม	-12763
เพื่อก	-12764
ไซปรัส	-12765
▁girls	-12766
แหละค่ะ	-12767
สั่งกาแฟ	-12768
▁นิ้วรอบ	-12769
ในเครื่อง	-12770
มีประโยชน์	-12771
ส่งเสริมการ	-12772
▁ตร	-12773
aled	-12774
▁bare	-12775
uggage	-12776
เสียใจ	-12777
โทรศัพท์ของคุณ	-12778
▁แฮ	-12779
หน๎า	-12780
ในรถ	-12781
▁Bre	-12782
antic	-12783
มนุษย	-12784
านิคม	-12785
▁Meet	-12786
านซิสโก	-12787
ผู้โดยสาร	-12788
▁introduc	-12789
ถั่วเหลือง	-12790
▁ซึ่งเป็นการ	-12791
▁ฉันไม่สามารถ	-12792
▁รองรับน้ําหนัก	-12793
.(	-12794
พัฒน	-12795
แต้ม	-12796
▁ทิศ	-12797
รักษ์	-12798
▁clar	-12799
▁Looks	-12800
▁brown	-12801
mosphere	-12802
ครราชทูต	-12803
▁reached	-12804
เปล่งปลั่ง	-12805
อย่างไรก็ตาม	-12806
โดยอัตโนมัติ	-12807
ปาล	-12808
▁คร	-12809
▁ลิ	-12810
▁Vis	-12811
▁mouth	-12812
เปิดตัว	-12813
▁Purple	-12814
▁refund	-12815
▁useless	-12816
ที่เว็บไซต์	-12817
gi	-12818
▁แจ	-12819
ดีนะ	-12820
▁แสง	-12821
▁core	-12822
แรกที่	-12823
▁meant	-12824
▁เลนส์	-12825
ificial	-12826
ร้านค้า	-12827
▁shorts	-12828
▁decrease	-12829
จ์	-12830
xic	-12831
านา	-12832
แปน	-12833
ใหล	-12834
หุ่น	-12835
▁Jet	-12836
▁cop	-12837
▁สเต	-12838
▁Tank	-12839
▁fail	-12840
▁ล๎าน	-12841
▁worse	-12842
▁Collar	-12843
▁exceed	-12844
▁ยืนยัน	-12845
▁DIGITAL	-12846
▁strateg	-12847
รู้จักกัน	-12848
อิตาเลียน	-12849
▁magnetic	-12850
hy	-12851
rd	-12852
ANO	-12853
gest	-12854
kech	-12855
▁Watt	-12856
ก็โอเค	-12857
ทํามัน	-12858
▁strip	-12859
ตัวขึ้น	-12860
▁advant	-12861
▁coconut	-12862
▁leaders	-12863
เลิฟเวอร์	-12864
▁เหล่านี้	-12865
▁โทรศัพท์	-12866
ที่อยู่อาศัย	-12867
imp	-12868
ดี้	-12869
▁Lt	-12870
▁ใส	-12871
gers	-12872
knit	-12873
อยัง	-12874
ดิสก์	-12875
▁SHOP	-12876
คาดไว้	-12877
ที่จับ	-12878
เผยแพร่	-12879
▁ธันวาคม	-12880
▁controls	-12881
▁establish	-12882
▁แต่โดยรวม	-12883
ผ่	-12884
ทึบ	-12885
เชย	-12886
▁Ms	-12887
ocus	-12888
robe	-12889
หนาน	-12890
หลาบ	-12891
▁DPI	-12892
▁ชาย	-12893
▁lift	-12894
ลําบาก	-12895
ของเด็ก	-12896
▁kindle	-12897
▁update	-12898
▁becomes	-12899
▁กรกฎาคม	-12900
▁Mc	-12901
▁neut	-12902
▁Match	-12903
▁rough	-12904
▁Hahaha	-12905
▁Models	-12906
▁น้อยลง	-12907
อาณานิคม	-12908
▁species	-12909
▁decision	-12910
▁planning	-12911
▁ขอให้มีวันที่ดี	-12912
IST	-12913
rade	-12914
ด้าย	-12915
▁jar	-12916
▁แปรง	-12917
iamond	-12918
▁civil	-12919
▁claim	-12920
ologies	-12921
ต้อนรับ	-12922
ผ่านทาง	-12923
ระบุไว้	-12924
อับชื้น	-12925
▁iconic	-12926
กว่าเดิม	-12927
▁alright	-12928
▁sources	-12929
ในหนังสือ	-12930
▁somewhere	-12931
▁refrigerator	-12932
pet	-12933
รอด	-12934
สกรู	-12935
▁Abs	-12936
▁Feel	-12937
▁Scan	-12938
▁spir	-12939
จําลอง	-12940
▁ทนต่อ	-12941
ลวดเย็บ	-12942
▁helped	-12943
▁Nations	-12944
หาริมทรัพย์	-12945
แอร์	-12946
ผจญภัย	-12947
▁occup	-12948
▁proof	-12949
▁ML	-12950
ล่อน	-12951
▁foods	-12952
▁ไม่รู้	-12953
กล่าวถึง	-12954
ทางอากาศ	-12955
▁Stretch	-12956
▁Function	-12957
▁จะทําให้	-12958
สภาพแวดล้อม	-12959
เศรษฐกิจมหภาค	-12960
⦅#	-12961
ซัม	-12962
แอป	-12963
ปรึก	-12964
▁Pat	-12965
▁พัด	-12966
คนขับ	-12967
นี้นะ	-12968
เรือง	-12969
พูดคุย	-12970
▁Metal	-12971
▁Satur	-12972
▁Unisex	-12973
ปรับเพิ่ม	-12974
▁Football	-12975
▁unemployment	-12976
cue	-12977
ชวน	-12978
ทิน	-12979
arsh	-12980
long	-12981
ปาร์	-12982
▁Old	-12983
▁iPod	-12984
idered	-12985
▁neigh	-12986
▁ฉันก็	-12987
▁Travel	-12988
friendly	-12989
▁ทําจากผ้า	-12990
ต่อเสริมทักษะ	-12991
โกร	-12992
▁รา	-12993
▁Stay	-12994
▁อ่อน	-12995
▁react	-12996
▁ออนซ์	-12997
▁Empire	-12998
▁relative	-12999
▁whatever	-13000
▁ภาพยนตร์	-13001
ซักด้วยมือ	-13002
หน่วยความจํา	-13003
▁มีความยืดหยุ่น	-13004
แปด	-13005
▁โม	-13006
fast	-13007
ริยา	-13008
▁OEM	-13009
▁fro	-13010
Watts	-13011
โรมัน	-13012
▁seed	-13013
จนจุใจ	-13014
รีดผ้า	-13015
▁eight	-13016
▁fault	-13017
▁accent	-13018
▁accord	-13019
▁PHILIPS	-13020
▁ข้อร้องเรียน	-13021
ABY	-13022
ouge	-13023
เลอะ	-13024
▁Bas	-13025
ทรีย์	-13026
แอลกอ	-13027
▁sing	-13028
▁tired	-13029
ossible	-13030
ความรัก	-13031
แข็งค่า	-13032
ห้องขนาด	-13033
ภัยคุกคาม	-13034
ตกแต่งด้วย	-13035
ประชาธิปไตย	-13036
▁ฉันซื้อมัน	-13037
เครื่องประดับ	-13038
ฝัง	-13039
ินี	-13040
aund	-13041
lets	-13042
สุดๆ	-13043
▁NYX	-13044
aries	-13045
เมนต์	-13046
▁mocha	-13047
วิธีที่	-13048
ในกลุ่ม	-13049
เร่งขึ้น	-13050
▁efforts	-13051
▁glasses	-13052
▁carefully	-13053
▁furniture	-13054
▁signature	-13055
IGE	-13056
ROID	-13057
รีย์	-13058
▁Eau	-13059
▁Has	-13060
▁Hmm	-13061
ถัดไป	-13062
พลิเค	-13063
▁Fold	-13064
▁cand	-13065
▁grab	-13066
▁ยูนิ	-13067
atform	-13068
▁Angel	-13069
▁gloss	-13070
▁ยินดี	-13071
สิงหาคม	-13072
▁gotten	-13073
เมื่อมัน	-13074
▁locations	-13075
▁functional	-13076
sy	-13077
พฤติ	-13078
▁SAMS	-13079
▁Brother	-13080
รับผิดชอบ	-13081
แจ้งเตือน	-13082
▁beautifully	-13083
เพียงเล็กน้อย	-13084
▁ตัดเย็บจากผ้า	-13085
ั้ว	-13086
าน์	-13087
แบต	-13088
Blue	-13089
ควัน	-13090
างค์	-13091
ycled	-13092
▁ดูดี	-13093
▁favour	-13094
▁listed	-13095
▁spring	-13096
▁Philips	-13097
ขนาดกะทัดรัด	-13098
ได้รับความนิยม	-13099
ป๋	-13100
can	-13101
ppy	-13102
เค้า	-13103
▁Rece	-13104
▁suppl	-13105
ครึ่งปี	-13106
ตัวน้อย	-13107
ปิดด้วย	-13108
▁manual	-13109
▁reader	-13110
▁Moistur	-13111
▁fantastic	-13112
ประมาณร้อยละ	-13113
มัค	-13114
ย่อ	-13115
ิมะ	-13116
▁เฟ	-13117
awai	-13118
made	-13119
▁ถือ	-13120
โชคดี	-13121
ตรงกับ	-13122
▁tends	-13123
ค่ําคืน	-13124
▁Breathable	-13125
▁microphone	-13126
แอม	-13127
▁shr	-13128
▁syn	-13129
▁Dist	-13130
ทั่วถึง	-13131
▁Marvel	-13132
▁ของเรา	-13133
▁caramel	-13134
กว้างขวาง	-13135
▁bathroom	-13136
พริ้นเตอร์	-13137
ให้อร่อยนะคะ	-13138
▁predictable	-13139
OOD	-13140
เอช	-13141
▁AT	-13142
odor	-13143
ture	-13144
ริยะ	-13145
▁knew	-13146
▁Price	-13147
▁Skech	-13148
ในสไตล์	-13149
▁slower	-13150
▁lifetime	-13151
เรียบร้อยแล้วค่ะ	-13152
งอ	-13153
IAL	-13154
วิล	-13155
เอท	-13156
โอบ	-13157
สลับ	-13158
▁ชาว	-13159
osing	-13160
works	-13161
าราคา	-13162
ทางด้าน	-13163
▁border	-13164
▁offered	-13165
▁chapters	-13166
▁graphics	-13167
▁แต่ก็ยัง	-13168
▁everywhere	-13169
อย่างแท้จริง	-13170
▁จนถึงตอนนี้	-13171
คณ	-13172
จ๊ะ	-13173
eren	-13174
▁เผย	-13175
changed	-13176
อย่างมี	-13177
ง่ายขึ้น	-13178
▁espresso	-13179
สิ่งที่เรา	-13180
ความร้อนได้	-13181
▁historical	-13182
ucc	-13183
้วง	-13184
ในทาง	-13185
▁Creat	-13186
ophistic	-13187
▁Western	-13188
และความชื้น	-13189
▁ในไตรมาสที่สาม	-13190
ih	-13191
ฮิต	-13192
ฉลอง	-13193
▁แมว	-13194
▁แหล	-13195
ashes	-13196
ผิวดู	-13197
▁grams	-13198
▁creamy	-13199
▁repeat	-13200
▁slowed	-13201
เท็จจริง	-13202
▁weekend	-13203
▁สามารถใช้	-13204
▁ผู้ชายอายุ	-13205
▁สินค้าจําหน่าย	-13206
▁IM	-13207
▁หม	-13208
นอร์	-13209
▁Conf	-13210
▁Turn	-13211
▁พัดลม	-13212
cription	-13213
สี่เหลี่ยม	-13214
▁สหรัฐอเมริกา	-13215
แกะ	-13216
แง่	-13217
โป๊	-13218
และจะ	-13219
veless	-13220
ชั้นดี	-13221
ทําตาม	-13222
▁seven	-13223
ของเหลว	-13224
นิ้วมือ	-13225
▁struct	-13226
▁genuine	-13227
▁ความคิด	-13228
รายงานของ	-13229
▁distinct	-13230
จัดระเบียบ	-13231
ดียิ่งขึ้น	-13232
▁Cloudfoam	-13233
▁exclusive	-13234
ซะ	-13235
FER	-13236
ิม่	-13237
ที่โรง	-13238
▁INPUT	-13239
▁Disney	-13240
▁วิธีการ	-13241
ซึ่งทําให้	-13242
ชํ	-13243
ANT	-13244
ffe	-13245
ผัน	-13246
สุก	-13247
▁bey	-13248
กอล์ฟ	-13249
▁mask	-13250
เกลียด	-13251
▁hanging	-13252
▁turning	-13253
▁stronger	-13254
assy	-13255
▁Nik	-13256
▁มอก	-13257
▁yeah	-13258
ฉีกขาด	-13259
▁defin	-13260
▁โวลต์	-13261
และราคา	-13262
▁beyond	-13263
▁celebr	-13264
▁speeds	-13265
▁ยกเว้น	-13266
▁hundred	-13267
ไม่เพียงพอ	-13268
ซุ	-13269
เผา	-13270
ownt	-13271
โปโล	-13272
▁ดอก	-13273
▁forms	-13274
▁Portug	-13275
▁dining	-13276
เดียวที่	-13277
บนพื้นผิว	-13278
ออกแบบให้	-13279
ไม่เป็นไร	-13280
▁powerbuy	-13281
▁ใช้ได้กับ	-13282
▁properties	-13283
▁distribution	-13284
SC	-13285
ิโอ	-13286
ผิวก	-13287
▁viol	-13288
ของที่	-13289
▁earth	-13290
▁Pocket	-13291
ย่างก้าว	-13292
แห้งสบาย	-13293
▁enhances	-13294
▁numerous	-13295
▁infrastructure	-13296
▁ต้น	-13297
▁Styl	-13298
คละแบบ	-13299
หูหิ้ว	-13300
▁สายไฟ	-13301
▁เซนต์	-13302
▁เราจะ	-13303
เท่าที่	-13304
นอกเหนือ	-13305
▁brought	-13306
▁himself	-13307
▁sleeping	-13308
▁ฉันสามารถ	-13309
▁atmosphere	-13310
▁integrated	-13311
▁previously	-13312
น้ํายาฟอกขาว	-13313
FL	-13314
IV	-13315
alog	-13316
ครอน	-13317
จะดี	-13318
บอกฉัน	-13319
เสื่อม	-13320
▁teams	-13321
▁รบกวน	-13322
▁orange	-13323
ความเห็น	-13324
แบบและสี	-13325
▁operating	-13326
▁complaints	-13327
▁Recommended	-13328
ในหนังสือเล่มนี้	-13329
:)	-13330
IRE	-13331
บัล	-13332
พาก	-13333
▁ที	-13334
ตะกร	-13335
อบรม	-13336
▁พรร	-13337
▁แผน	-13338
ARRAN	-13339
▁dise	-13340
ทองคํา	-13341
อีกอัน	-13342
หนึ่งปี	-13343
▁มกราคม	-13344
โต๊ะว่าง	-13345
▁noticed	-13346
ของบริษัท	-13347
ทางการเงิน	-13348
▁สามารถใส่	-13349
ima	-13350
สนธิ	-13351
▁Chic	-13352
▁LAUR	-13353
▁UberX	-13354
looking	-13355
ตระหนัก	-13356
▁Canada	-13357
formation	-13358
▁melamine	-13359
WH	-13360
ข้า	-13361
สติ	-13362
▁นิ	-13363
▁มะ	-13364
▁รส	-13365
▁Wide	-13366
คําว่า	-13367
ทุกการ	-13368
เปี่ยม	-13369
▁whose	-13370
ตรวจจับ	-13371
เกณฑ์ดี	-13372
▁layers	-13373
การปกครอง	-13374
▁Advanced	-13375
▁หมึกสีดํา	-13376
▁portability	-13377
ค่าการนําเข้า	-13378
BA	-13379
ชด	-13380
ไหม้	-13381
▁REM	-13382
▁Vel	-13383
meter	-13384
▁Fiber	-13385
▁LIGHT	-13386
▁biggest	-13387
▁recover	-13388
ทุกประเภท	-13389
สะท้อนแสง	-13390
▁Cleansing	-13391
▁community	-13392
ในระหว่างการ	-13393
TRA	-13394
hile	-13395
แชโดว์	-13396
▁Frame	-13397
▁grill	-13398
▁ชาร์จ	-13399
กี่คนคะ	-13400
▁awhile	-13401
▁โดยไม่	-13402
STON	-13403
▁RAM	-13404
ดํารง	-13405
▁ฟิล์ม	-13406
พฤษภาคม	-13407
ผู้บริโภค	-13408
▁assorted	-13409
▁challeng	-13410
▁developing	-13411
▁ป้องกันการ	-13412
mr	-13413
ta	-13414
FOR	-13415
แคร	-13416
▁Du	-13417
▁Nic	-13418
fiber	-13419
iliar	-13420
ติภาพ	-13421
พร้าว	-13422
หลงใหล	-13423
ออเดอร์	-13424
▁paying	-13425
▁ผลิตจากผ้าฝ้าย	-13426
HC	-13427
องเท้า	-13428
▁bound	-13429
▁knife	-13430
▁ratio	-13431
▁Dynamic	-13432
▁viscose	-13433
ที่ยาวนาน	-13434
ที่รองรับ	-13435
▁wardrobe	-13436
ito	-13437
ป๋อง	-13438
▁Wed	-13439
▁rib	-13440
เชอร์	-13441
▁hire	-13442
ของน้ํา	-13443
ถ่ายรูป	-13444
outheast	-13445
เศรษฐกิจโลก	-13446
เต็มประสิทธิภาพ	-13447
▁คุณสมบัติพิเศษ	-13448
ตํอ	-13449
เบาๆ	-13450
แทรก	-13451
▁CLE	-13452
▁gro	-13453
ureth	-13454
▁ages	-13455
▁buck	-13456
aundry	-13457
คาดเดา	-13458
ชื่อว่า	-13459
▁Mexico	-13460
นิวยอร์ก	-13461
ในระหว่าง	-13462
▁backrest	-13463
▁ER	-13464
aved	-13465
angle	-13466
▁กีฬา	-13467
สํงออก	-13468
เราจึง	-13469
ไซเคิล	-13470
▁agree	-13471
▁maker	-13472
▁north	-13473
▁ยังมี	-13474
เปิดเผย	-13475
▁Alumin	-13476
▁preserv	-13477
▁รับเป็น	-13478
▁wrinkles	-13479
ดังนั้นฉันจึง	-13480
▁ดีไซน์ทันสมัย	-13481
รอน	-13482
▁อา	-13483
born	-13484
เธอนะ	-13485
▁Hold	-13486
▁Pant	-13487
▁trim	-13488
ARRANTY	-13489
ตรงกลาง	-13490
สินค้าร	-13491
▁narrow	-13492
▁ที่ถูก	-13493
และทนทาน	-13494
▁destroy	-13495
▁รับทราบ	-13496
▁ปัจจุบัน	-13497
▁president	-13498
สินค้าเกษตร	-13499
▁มาพร้อมดีไซน์	-13500
▁ให้ความรู้สึก	-13501
▁กรัมอายุสินค้าน	-13502
แป้น	-13503
▁Cam	-13504
▁Toy	-13505
▁Stud	-13506
▁pine	-13507
ว่าใคร	-13508
เอาไว้	-13509
แคนาดา	-13510
ได้ไม่	-13511
ซื้อขาย	-13512
ไม่มีใคร	-13513
ald	-13514
ani	-13515
พาส	-13516
▁Sleep	-13517
▁plans	-13518
▁outlet	-13519
▁Britain	-13520
ที่สูงขึ้น	-13521
▁ชะลอตัวลง	-13522
▁ให้คุณได้	-13523
เฟอร์นิเจอร์	-13524
OOM	-13525
บ่น	-13526
ปะรด	-13527
ส่งผล	-13528
Length	-13529
ซักมือ	-13530
▁Rouge	-13531
นั่นคือ	-13532
ไซเบอร์	-13533
▁Almond	-13534
▁claims	-13535
▁crystal	-13536
▁footbed	-13537
▁housing	-13538
▁quantity	-13539
ส่งผลกระทบ	-13540
▁ฉันอยากได้	-13541
คุณไม่สามารถ	-13542
เร็วๆ	-13543
▁แหล่ง	-13544
▁ไปกับ	-13545
คสินค้า	-13546
▁Butter	-13547
อัครราชทูต	-13548
ได้มากกว่า	-13549
สตร	-13550
คอปก	-13551
▁Ele	-13552
ijing	-13553
▁Stor	-13554
▁THER	-13555
▁truly	-13556
เรื่องการ	-13557
▁prepared	-13558
▁conveniently	-13559
▁ไม่ระคายเคือง	-13560
อาจมี	-13561
▁situ	-13562
ตีพิมพ์	-13563
แบ่งปัน	-13564
▁Mobile	-13565
▁orders	-13566
▁complet	-13567
▁announced	-13568
▁protected	-13569
▁waistband	-13570
▁expectations	-13571
bud	-13572
▁๒๕	-13573
อสัง	-13574
▁Dav	-13575
▁Hor	-13576
▁atte	-13577
ptions	-13578
ภารกิจ	-13579
ปฏิวัติ	-13580
ปรับแต่ง	-13581
▁Category	-13582
ออกจากบ้าน	-13583
▁กระเป๋าสะพาย	-13584
▁จัก	-13585
ลงนาม	-13586
▁IPAD	-13587
วยางยืด	-13588
▁เหลือง	-13589
รับสัญญาณ	-13590
▁นวัตกรรม	-13591
มีส่วนร่วม	-13592
น้ํายาซักผ้า	-13593
เดค	-13594
▁cd	-13595
อ้อม	-13596
apple	-13597
▁BABY	-13598
▁knows	-13599
ความมัน	-13600
น้อยมาก	-13601
▁wooden	-13602
กํอนหน๎า	-13603
▁Olympic	-13604
อนุญาตให้	-13605
อีกมากมาย	-13606
▁ยืดหยุ่น	-13607
นิวซีแลนด์	-13608
ชญ	-13609
ARS	-13610
ทีนะ	-13611
พฤหัส	-13612
▁adop	-13613
▁bill	-13614
▁weren	-13615
อย่างใด	-13616
เป็นนัก	-13617
▁Floral	-13618
▁compar	-13619
▁binding	-13620
ไอร์แลนด์	-13621
▁ฉันใช้มัน	-13622
ศร	-13623
▁af	-13624
เกิล	-13625
▁mer	-13626
ไปรอบ	-13627
รถเข็น	-13628
▁laser	-13629
▁ปอนด์	-13630
นอนหลับ	-13631
▁garden	-13632
▁PAZZION	-13633
▁convert	-13634
▁Provides	-13635
▁Champions	-13636
▁relationship	-13637
sq	-13638
▁แย	-13639
▁ham	-13640
ether	-13641
▁pads	-13642
ากล่าว	-13643
▁Mount	-13644
▁Vista	-13645
▁sites	-13646
เกิดการ	-13647
ผลตอบแทน	-13648
▁serving	-13649
▁คุณภาพสูง	-13650
▁แต่ตอนนี้	-13651
ซื้อสิ่งนี้	-13652
As	-13653
▁""	-13654
▁Tre	-13655
เธอจะ	-13656
▁Wipe	-13657
▁ถ้วย	-13658
▁ท็อป	-13659
คุณได้	-13660
บนพื้น	-13661
พิกเซล	-13662
ราบรื่น	-13663
▁Vacuum	-13664
ต่อไปนี้	-13665
ไม่มีความ	-13666
▁Notebook	-13667
▁adorable	-13668
ONG	-13669
gend	-13670
หนุน	-13671
▁ฐาน	-13672
osure	-13673
▁Zoom	-13674
อ่านมัน	-13675
ตั้งแต่ปี	-13676
▁Backpack	-13677
แม้กระทั่ง	-13678
▁population	-13679
วอ	-13680
▁⦅#	-13681
▁ears	-13682
▁tong	-13683
ผิวสวย	-13684
▁autom	-13685
▁olives	-13686
ไร้ที่ติ	-13687
▁allowed	-13688
สัมผัสกับ	-13689
▁Saturday	-13690
คละแบบคละสี	-13691
EFAL	-13692
with	-13693
▁ค้น	-13694
▁Enter	-13695
▁flims	-13696
▁stays	-13697
ลงบนผ้า	-13698
สะดุดตา	-13699
ใหม่และ	-13700
▁police	-13701
อนุรักษ์	-13702
เก็บฝุ่น	-13703
▁perhaps	-13704
อาจจะเป็น	-13705
▁อุตสาหกรรม	-13706
อย่างถูกต้อง	-13707
ona	-13708
ศรี	-13709
เพชร	-13710
▁Doll	-13711
▁PLUS	-13712
▁จักร	-13713
asmine	-13714
มากกับ	-13715
▁moves	-13716
comfort	-13717
ผู้เล่น	-13718
เหนื่อย	-13719
▁มีหลาย	-13720
เร็วขึ้น	-13721
ประเภทนี้	-13722
เวอร์ชั่น	-13723
▁ระยะเวลา	-13724
เป็นเวลานาน	-13725
▁oh	-13726
ิตาม	-13727
▁นิว	-13728
▁มุม	-13729
▁oils	-13730
นี้ค่ะ	-13731
▁edges	-13732
ราคานี้	-13733
▁shared	-13734
ตั้งโต๊ะ	-13735
ด้านหนึ่ง	-13736
▁hydration	-13737
▁mushrooms	-13738
▁ไม่เป็นสนิม	-13739
ACT	-13740
oos	-13741
ทอล	-13742
aign	-13743
ากลับ	-13744
▁EASY	-13745
▁clock	-13746
▁minor	-13747
▁promo	-13748
▁Because	-13749
▁horrible	-13750
คุณภาพเยี่ยม	-13751
จากสตาร์บัคส์	-13752
Wx	-13753
เทร	-13754
แปร	-13755
▁ดิ	-13756
กลืน	-13757
▁BAL	-13758
▁มาก	-13759
ควรมี	-13760
มะกอก	-13761
▁mall	-13762
▁Label	-13763
▁spark	-13764
ไม่เห็น	-13765
▁flight	-13766
▁mirror	-13767
▁Awesome	-13768
แบบไหนดีคะ	-13769
▁Government	-13770
▁Waterproof	-13771
▁alternative	-13772
zel	-13773
▁Ap	-13774
▁ED	-13775
ผลการ	-13776
▁stun	-13777
▁Graph	-13778
▁Spray	-13779
▁simpl	-13780
ราชวงศ์	-13781
▁Coupon	-13782
▁calcul	-13783
▁และฉัน	-13784
อยู่ที่นั่น	-13785
บริการลูกค้า	-13786
CC	-13787
aman	-13788
พาหนะ	-13789
สีทอง	-13790
อินเท	-13791
โดยมี	-13792
▁Rice	-13793
▁scan	-13794
▁limit	-13795
รูขุมขน	-13796
▁toward	-13797
ในการใช้	-13798
ที่คาดไว้	-13799
บุฟองน้ํา	-13800
▁metallic	-13801
สุนัขของฉัน	-13802
▁protective	-13803
▁dou	-13804
รีโมท	-13805
▁Scent	-13806
▁catch	-13807
▁coast	-13808
▁สตาร์	-13809
Stripes	-13810
ของระบบ	-13811
▁Monday	-13812
▁passed	-13813
▁temper	-13814
▁ขนาดใหญ่	-13815
พิพิธภัณฑ์	-13816
นอง	-13817
มอค	-13818
แฟลช	-13819
▁Tea	-13820
▁ซับ	-13821
▁forg	-13822
ผู้แทน	-13823
leyball	-13824
เพราะมี	-13825
เรียกรถ	-13826
▁Easily	-13827
▁flower	-13828
สมมติฐาน	-13829
▁Content	-13830
▁Express	-13831
▁สะดวกสบาย	-13832
▁Department	-13833
▁ah	-13834
เช็ก	-13835
โคตร	-13836
itect	-13837
ทฤษฎี	-13838
ผ้าใบ	-13839
ราเดค	-13840
ใบไม้	-13841
และเสียง	-13842
▁พนักพิง	-13843
▁reserves	-13844
▁ปีขึ้นไป	-13845
▁Polyamide	-13846
▁concerned	-13847
▁นิ้ววัสดุ	-13848
▁ลูกสาวของฉัน	-13849
▁unfortunately	-13850
ธน	-13851
bre	-13852
ota	-13853
▁(%	-13854
▁ไฮ	-13855
สีตก	-13856
▁Page	-13857
▁virt	-13858
ในกรุง	-13859
▁สถานี	-13860
▁troops	-13861
▁ซึ่งจะ	-13862
▁มั่นใจ	-13863
▁removing	-13864
สหภาพยุโรป	-13865
▁impressed	-13866
▁impossible	-13867
▁หลังจากที่	-13868
▁competition	-13869
ณฑล	-13870
inse	-13871
wire	-13872
ตะขอ	-13873
▁Big	-13874
สีที่	-13875
▁rear	-13876
ointed	-13877
▁owned	-13878
▁cities	-13879
็อกโกแลต	-13880
▁viewing	-13881
▁กระทรวง	-13882
▁feminine	-13883
▁assistance	-13884
▁ประธานาธิบดี	-13885
hem	-13886
ช็อป	-13887
ภัตตา	-13888
▁Data	-13889
รอบตัว	-13890
▁Three	-13891
อนุมัติ	-13892
ใหม่ที่	-13893
▁เอ็กซ์	-13894
โปรตุเกส	-13895
▁ที่เป็น	-13896
กระดาษขนาด	-13897
▁Institute	-13898
▁dishwasher	-13899
▁เฟอร์ราเดค	-13900
เนื้อผลิตภัณฑ์	-13901
▁มีน้ําหนักเบา	-13902
▁ซึ	-13903
aste	-13904
เงนิ	-13905
▁SAB	-13906
▁lic	-13907
▁brows	-13908
▁gluten	-13909
▁conflic	-13910
▁imports	-13911
▁ก็สามารถ	-13912
แก้ไขปัญหา	-13913
การเรียนรู้	-13914
▁ซึ่งทําให้	-13915
▁instruction	-13916
ไอเทม	-13917
▁เปอร์	-13918
วัยรุ่น	-13919
▁commod	-13920
▁flimsy	-13921
▁tables	-13922
นําไปสู่	-13923
▁convers	-13924
▁worldwide	-13925
orb	-13926
ทนุ	-13927
เชือ	-13928
เมีย	-13929
▁BTU	-13930
place	-13931
rates	-13932
▁Milk	-13933
▁ankle	-13934
▁tourist	-13935
ของคุณเอง	-13936
ข้อจํากัด	-13937
ิกซ์แอนด์	-13938
▁increases	-13939
▁แต่ไม่ได้	-13940
ที่จะได้รับ	-13941
▁passengers	-13942
นั	-13943
ฮิ	-13944
▁รีด	-13945
เพิม่	-13946
เทศกาล	-13947
▁rapid	-13948
▁Really	-13949
ภัตตาคาร	-13950
ความมั่นใจ	-13951
▁scheduled	-13952
ซักฟอกที่ผสม	-13953
▁ใบเสร็จจะส่ง	-13954
▁ควรใส่ถุงตาข่าย	-13955
ี้น	-13956
ป้อน	-13957
อยส์	-13958
▁san	-13959
▁ราค	-13960
aught	-13961
สมาธิ	-13962
▁king	-13963
▁จริงๆ	-13964
▁panels	-13965
▁ขอทราบ	-13966
▁และได้	-13967
▁headset	-13968
▁technical	-13969
▁therefore	-13970
เครื่องครัว	-13971
▁essentials	-13972
▁confirmation	-13973
ICAL	-13974
▁ยิ่ง	-13975
▁Guide	-13976
แผ่นรอง	-13977
กี่โมงคะ	-13978
▁Lifting	-13979
▁บริษัทฯ	-13980
จักรพรรดิ	-13981
▁Lipstick	-13982
▁practice	-13983
บางสิ่งที่	-13984
▁กระเป๋าเป้	-13985
lite	-13986
▁Dol	-13987
▁อือ	-13988
▁south	-13989
▁เรียก	-13990
▁แต่ละ	-13991
อ่อนค่า	-13992
เก็บไว้	-13993
▁prepar	-13994
▁prompt	-13995
▁ตุลาคม	-13996
▁ทิศทาง	-13997
roidered	-13998
▁medical	-13999
แอลกอฮอล์	-14000
และการวางแผน	-14001
ข้อมูลเพิ่มเติม	-14002
นิต	-14003
▁COP	-14004
โรแมนติก	-14005
▁painting	-14006
▁remaining	-14007
ทุกครั้งที่	-14008
▁พี่อยากได้	-14009
hens	-14010
ชํวง	-14011
่าจะ	-14012
ettle	-14013
▁บ้าน	-14014
ใต้ดิน	-14015
▁severe	-14016
▁luxurious	-14017
ขนาดเครื่อง	-14018
▁innovation	-14019
▁ง่ายต่อการ	-14020
ความชุ่มชื่น	-14021
▁ดีไซน์สวยงาม	-14022
▁Pass	-14023
นมาร์ก	-14024
ังนั้น	-14025
▁Happy	-14026
▁Shoes	-14027
คริสตัล	-14028
▁fruits	-14029
ของคุณและ	-14030
ผลประโยชน์	-14031
▁depending	-14032
▁สุดน่ารัก	-14033
▁equivalent	-14034
เกี่ยวกับมัน	-14035
ULL	-14036
หัด	-14037
▁Ey	-14038
care	-14039
▁Equ	-14040
▁Ill	-14041
▁leh	-14042
▁mail	-14043
ตกค้าง	-14044
▁พบกับ	-14045
itivity	-14046
ขนาดนั้น	-14047
ได้ทันที	-14048
เพื่อให้คุณ	-14049
▁artificial	-14050
ครึ่งแรกของปี	-14051
SH	-14052
ติ้ง	-14053
เขือ	-14054
▁End	-14055
watts	-14056
▁runs	-14057
สมเด็จ	-14058
▁adapt	-14059
▁ขั้นตอน	-14060
▁มากกว่า	-14061
▁Printing	-14062
▁smoother	-14063
▁correctly	-14064
มีน้ําหนักเบา	-14065
ador	-14066
icer	-14067
▁Boy	-14068
▁esc	-14069
▁tap	-14070
ผู้มี	-14071
สโมสร	-14072
เขาจะ	-14073
▁gear	-14074
คือมัน	-14075
ที่ยาก	-14076
มันเนย	-14077
▁Using	-14078
▁filled	-14079
▁resist	-14080
▁tracks	-14081
▁ทําให้คุณ	-14082
ภิ	-14083
บใด	-14084
Size	-14085
แท่น	-14086
▁DES	-14087
iques	-14088
▁denim	-14089
▁frust	-14090
▁rooms	-14091
ที่ลดลง	-14092
น้ําและ	-14093
รูปเท้า	-14094
สะเทือน	-14095
หลังการ	-14096
▁Select	-14097
อย่างช้า	-14098
▁payment	-14099
▁ทันสมัย	-14100
ซักผ้าขาว	-14101
ได้ดีกว่า	-14102
▁mechanism	-14103
▁reservations	-14104
▁ลูกชายของฉัน	-14105
IGN	-14106
bps	-14107
โง่	-14108
mbol	-14109
▁wed	-14110
radec	-14111
▁salt	-14112
ซ่อมรถ	-14113
ยากมาก	-14114
▁เหล็ก	-14115
ซื้อจาก	-14116
▁Shower	-14117
▁nicely	-14118
▁CONTROL	-14119
abilities	-14120
ชําระเงิน	-14121
▁Furradec	-14122
ส่วนตกแต่ง	-14123
▁ช่วยเพิ่มความ	-14124
บางสิ่งบางอย่าง	-14125
ubic	-14126
เบีย	-14127
▁ANG	-14128
▁soc	-14129
คงที่	-14130
มกลาง	-14131
▁oven	-14132
▁chlor	-14133
▁Consum	-14134
▁folder	-14135
ประมวลผล	-14136
▁Suction	-14137
▁เดินทาง	-14138
▁อัตราการ	-14139
▁regarding	-14140
▁components	-14141
▁ปัญหาเดียว	-14142
bal	-14143
▁ลา	-14144
ไปหา	-14145
▁กี่	-14146
▁เตา	-14147
เคาน์	-14148
ที่แย่	-14149
ประสาน	-14150
▁plays	-14151
เล่มนี้	-14152
▁tightly	-14153
เพื่อช่วย	-14154
▁ป้ายดูแลรักษา	-14155
ษฐ	-14156
▁LT	-14157
▁Spin	-14158
esides	-14159
สวิตช์	-14160
อนุภาค	-14161
ถาดกลาง	-14162
▁benefit	-14163
▁ลิปสติก	-14164
วันจันทร์	-14165
กระเป๋าด้าน	-14166
ฉก	-14167
Spe	-14168
ไข้	-14169
ใกล้ๆ	-14170
▁pipe	-14171
ไม่ช้า	-14172
▁BROWN	-14173
▁Check	-14174
▁กรมท่า	-14175
▁exciting	-14176
▁ฉันไม่เคย	-14177
phas	-14178
ixels	-14179
ulate	-14180
▁	-14181
e	-14182
t	-14183
o	-14184
า	-14185
a	-14186
i	-14187
n	-14188
r	-14189
น	-14190
s	-14191
่	-14192
อ	-14193
ร	-14194
l	-14195
ก	-14196
h	-14197
้	-14198
ง	-14199
ม	-14200
เ	-14201
d	-14202
ั	-14203
c	-14204
ี	-14205
u	-14206
ด	-14207
ล	-14208
ว	-14209
ย	-14210
ส	-14211
m	-14212
ค	-14213
p	-14214
ะ	-14215
f	-14216
y	-14217
ท	-14218
ต	-14219
บ	-14220
ห	-14221
g	-14222
.	-14223
ิ	-14224
แ	-14225
w	-14226
ไ	-14227
b	-14228
ป	-14229
จ	-14230
ข	-14231
ใ	-14232
ื	-14233
ุ	-14234
พ	-14235
v	-14236
ช	-14237
k	-14238
์	-14239
ํ	-14240
็	-14241
0	-14242
:	-14243
ู	-14244
I	-14245
S	-14246
1	-14247
,	-14248
T	-14249
โ	-14250
ณ	-14251
ผ	-14252
2	-14253
C	-14254
A	-14255
ซ	-14256
ถ	-14257
5	-14258
P	-14259
E	-14260
-	-14261
ึ	-14262
M	-14263
x	-14264
3	-14265
O	-14266
ภ	-14267
N	-14268
L	-14269
ฉ	-14270
R	-14271
'	-14272
D	-14273
B	-14274
)	-14275
(	-14276
4	-14277
W	-14278
ศ	-14279
ฟ	-14280
H	-14281
F	-14282
6	-14283
8	-14284
ธ	-14285
9	-14286
U	-14287
G	-14288
z	-14289
7	-14290
ญ	-14291
"	-14292
ษ	-14293
?	-14294
ๆ	-14295
q	-14296
Y	-14297
/	-14298
j	-14299
!	-14300
K	-14301
ฐ	-14302
V	-14303
ฑ	-14304
%	-14305
J	-14306
•	-14307
X	-14308
ฮ	-14309
ฝ	-14310
|	-14311
๋	-14312
๊	-14313
&	-14314
$	-14315
ฤ	-14316
Z	-14317
_	-14318
Q	-14319
+	-14320
–	-14321
๎	-14322
ฯ	-14323
×	-14324
;	-14325
ฒ	-14326
ฏ	-14327
ฬ	-14328
ฎ	-14329
′	-14330
ฆ	-14331
®	-14332
@	-14333
Ò	-14334
—	-14335
*	-14336
=	-14337
μ	-14338
é	-14339
§	-14340
è	-14341
¡	-14342
á	-14343
°	-14344
\	-14345
Í	-14346
Ê	-14347
Õ	-14348
Å	-14349
[	-14350
๒	-14351
]	-14352
	-14353
Ñ	-14354
̈	-14355
#	-14356
Á	-14357
É	-14358
~	-14359
Ç	-14360
à	-14361
⁄	-14362
>	-14363
Ë	-14364
๑	-14365
๕	-14366
́	-14367
	-14368
ì	-14369
Ã	-14370
¢	-14371
¤	-14372
±	-14373
Ô	-14374
	-14375
๐	-14376
๖	-14377
<	-14378
⦅	-14379
⦆	-14380
·	-14381
ç	-14382
ä	-14383
«	-14384
ü	-14385
À	-14386
Ð	-14387
๓	-14388
ō	-14389
^	-14390
Ø	-14391
●	-14392
€	-14393
๔	-14394
Â	-14395
â	-14396
✅	-14397
￼	-14398
»	-14399
๙	-14400
Ē	-14401
ฺ	-14402
๘	-14403
Ä	-14404
๗	-14405
ฌ	-14406
‐	-14407
£	-14408
ó	-14409
−	-14410
©	-14411
`	-14412
í	-14413
→	-14414
	-14415
Ü	-14416
ñ	-14417
ô	-14418
ö	-14419
ū	-14420
а	-14421
ā	-14422
・	-14423
	-14424
и	-14425
≤	-14426
≫	-14427
ć	-14428
о	-14429
்	-14430
ł	-14431
α	-14432
Đ	-14433
φ	-14434
ê	-14435
ฃ	-14436
е	-14437
н	-14438
中	-14439
我	-14440
的	-14441
ο	-14442
※	-14443
р	-14444
{	-14445
}	-14446
ệ	-14447
ν	-14448
с	-14449
★	-14450
😉	-14451
τ	-14452
š	-14453
ã	-14454
、	-14455
ú	-14456
ē	-14457
小	-14458
̊	-14459
ا	-14460
🙂	-14461
ட	-14462
ρ	-14463
↑	-14464
È	-14465
Р	-14466
т	-14467
្	-14468
合	-14469
年	-14470
¥	-14471
ạ	-14472
▬	-14473
大	-14474
業	-14475
ù	-14476
к	-14477
帝	-14478
企	-14479
展	-14480
総	-14481
๏	-14482
θ	-14483
С	-14484
ø	-14485
ă	-14486
ą	-14487
ư	-14488
Î	-14489
ß	-14490
ò	-14491
ī	-14492
‟	-14493
ʼ	-14494
ý	-14495
σ	-14496
л	-14497
ل	-14498
រ	-14499
ë	-14500
ς	-14501
ồ	-14502
ộ	-14503
్	-14504
公	-14505
β	-14506
в	-14507
฿	-14508
國	-14509
选	-14510
η	-14511
ι	-14512
ា	-14513
∙	-14514
】	-14515
京	-14516
銆	-14517
ả	-14518
ı	-14519
У	-14520
傗	-14521
政	-14522
ơ	-14523
δ	-14524
λ	-14525
Б	-14526
ي	-14527
人	-14528
国	-14529
皇	-14530
ž	-14531
κ	-14532
б	-14533
ầ	-14534
【	-14535
和	-14536
å	-14537
γ	-14538
ε	-14539
д	-14540
ễ	-14541
。	-14542
Ω	-14543
υ	-14544
г	-14545
ر	-14546
„	-14547
一	-14548
民	-14549
老	-14550
鈥	-14551
Č	-14552
č	-14553
ě	-14554
у	-14555
ب	-14556
க	-14557
天	-14558
治	-14559
ń	-14560
ş	-14561
ǔ	-14562
ி	-14563
洋	-14564
测	-14565
王	-14566
đ	-14567
ǎ	-14568
ș	-14569
я	-14570
د	-14571
ப	-14572
你	-14573
党	-14574
城	-14575
验	-14576
ź	-14577
ż	-14578
ة	-14579
م	-14580
ن	-14581
ம	-14582
ក	-14583
ố	-14584
†	-14585
✔	-14586
茶	-14587
û	-14588
ÿ	-14589
ę	-14590
ś	-14591
Ž	-14592
π	-14593
Л	-14594
வ	-14595
ீ	-14596
ị	-14597
」	-14598
了	-14599
信	-14600
地	-14601
日	-14602
食	-14603
î	-14604
П	-14605
п	-14606
ម	-14607
「	-14608
不	-14609
加	-14610
Ï	-14611
Ō	-14612
ά	-14613
ស	-14614
ậ	-14615
∞	-14616
山	-14617
新	-14618
국	-14619
🙁	-14620
	-14621
Ö	-14622
ï	-14623
̄	-14624
χ	-14625
ύ	-14626
І	-14627
з	-14628
й	-14629
ت	-14630
و	-14631
ச	-14632
த	-14633
ỳ	-14634
利	-14635
好	-14636
安	-14637
李	-14638
槄	-14639
武	-14640
華	-14641
都	-14642
	-14643
ό	-14644
ی	-14645
ត	-14646
ổ	-14647
ợ	-14648
イ	-14649
主	-14650
出	-14651
分	-14652
图	-14653
支	-14654
登	-14655
軍	-14656
Ł	-14657
Е	-14658
ц	-14659
ع	-14660
ு	-14661
ా	-14662
ជ	-14663
‚	-14664
≈	-14665
◦	-14666
宝	-14667
心	-14668
文	-14669
白	-14670
秦	-14671
色	-14672
贝	-14673
️	-14674
😀	-14675
æ	-14676
ή	-14677
В	-14678
К	-14679
Н	-14680
О	-14681
м	-14682
ы	-14683
ו	-14684
י	-14685
س	-14686
ர	-14687
ள	-14688
ா	-14689
ប	-14690
ṭ	-14691
♪	-14692
下	-14693
五	-14694
享	-14695
仰	-14696
候	-14697
北	-14698
如	-14699
子	-14700
总	-14701
您	-14702
戰	-14703
持	-14704
是	-14705
来	-14706
東	-14707
派	-14708
票	-14709
统	-14710
置	-14711
親	-14712
讲	-14713
设	-14714
试	-14715
	-14716
ŏ	-14717
Š	-14718
ː	-14719
Φ	-14720
ί	-14721
ζ	-14722
А	-14723
Т	-14724
Ы	-14725
ж	-14726
ь	-14727
ר	-14728
ه	-14729
न	-14730
వ	-14731
ి	-14732
ๅ	-14733
ព	-14734
ុ	-14735
↓	-14736
≥	-14737
■	-14738
ン	-14739
上	-14740
交	-14741
尝	-14742
平	-14743
意	-14744
本	-14745
槅	-14746
水	-14747
眉	-14748
秀	-14749
起	-14750
대	-14751
무	-14752
석	-14753
한	-14754
¬	-14755
­	-14756
Ś	-14757
έ	-14758
ш	-14759
і	-14760
ט	-14761
ל	-14762
े	-14763
ం	-14764
క	-14765
డ	-14766
య	-14767
ể	-14768
‡	-14769
カ	-14770
之	-14771
到	-14772
南	-14773
在	-14774
坡	-14775
太	-14776
州	-14777
工	-14778
抱	-14779
朝	-14780
楚	-14781
爱	-14782
西	-14783
飯	-14784
õ	-14785
ˆ	-14786
Κ	-14787
Х	-14788
ф	-14789
ה	-14790
מ	-14791
ح	-14792
غ	-14793
ق	-14794
ा	-14795
्	-14796
ற	-14797
ல	-14798
ర	-14799
ន	-14800
ẩ	-14801
ế	-14802
ớ	-14803
ủ	-14804
ἀ	-14805
┾	-14806
┿	-14807
◊	-14808
三	-14809
劉	-14810
勳	-14811
堨	-14812
夫	-14813
学	-14814
學	-14815
家	-14816
後	-14817
快	-14818
明	-14819
晚	-14820
月	-14821
有	-14822
樂	-14823
玄	-14824
祁	-14825
祥	-14826
虎	-14827
路	-14828
門	-14829
공	-14830
민	-14831
	-14832
İ	-14833
Ÿ	-14834
ǒ	-14835
Ε	-14836
ω	-14837
З	-14838
Ф	-14839
Э	-14840
ҳ	-14841
נ	-14842
ש	-14843
ங	-14844
ன	-14845
ய	-14846
ஸ	-14847
ฅ	-14848
်	-14849
ល	-14850
ṣ	-14851
ắ	-14852
ờ	-14853
―	-14854
⋯	-14855
□	-14856
○	-14857
う	-14858
か	-14859
き	-14860
し	-14861
ん	-14862
ス	-14863
ラ	-14864
个	-14865
于	-14866
共	-14867
博	-14868
吗	-14869
度	-14870
康	-14871
得	-14872
德	-14873
愛	-14874
憲	-14875
會	-14876
沛	-14877
洪	-14878
漢	-14879
点	-14880
熙	-14881
物	-14882
産	-14883
看	-14884
睡	-14885
縣	-14886
肉	-14887
臭	-14888
觉	-14889
还	-14890
部	-14891
顏	-14892
黨	-14893
도	-14894
산	-14895
시	-14896
	-14897
ĩ	-14898
ə	-14899
ɴ	-14900
ʾ	-14901
̀	-14902
̶	-14903
Χ	-14904
Ј	-14905
Г	-14906
Д	-14907
М	-14908
Ь	-14909
Я	-14910
х	-14911
א	-14912
ג	-14913
ן	-14914
ج	-14915
ط	-14916
ف	-14917
क	-14918
र	-14919
ண	-14920
ந	-14921
ூ	-14922
ை	-14923
ఆ	-14924
ద	-14925
ప	-14926
ల	-14927
స	-14928
ు	-14929
ฦ	-14930
င	-14931
ာ	-14932
ខ	-14933
ច	-14934
ណ	-14935
ហ	-14936
ិ	-14937
ី	-14938
ះ	-14939
ḥ	-14940
ọ	-14941
ἐ	-14942
ᾶ	-14943
‪	-14944
₩	-14945
≠	-14946
⎯	-14947
┬	-14948
♡	-14949
お	-14950
で	-14951
に	-14952
也	-14953
傦	-14954
光	-14955
制	-14956
命	-14957
哈	-14958
員	-14959
営	-14960
夷	-14961
始	-14962
委	-14963
婆	-14964
媪	-14965
嬰	-14966
定	-14967
局	-14968
市	-14969
广	-14970
慢	-14971
找	-14972
技	-14973
拉	-14974
揖	-14975
族	-14976
早	-14977
春	-14978
普	-14979
服	-14980
毫	-14981
油	-14982
源	-14983
滐	-14984
滷	-14985
爭	-14986
珍	-14987
球	-14988
瓿	-14989
真	-14990
碃	-14991
種	-14992
紅	-14993
紡	-14994
羊	-14995
范	-14996
話	-14997
調	-14998
讓	-14999
过	-15000
里	-15001
野	-15002
锝	-15003
雄	-15004
革	-15005
鞛	-15006
頃	-15007
黄	-15008
黎	-15009
당	-15010
딩	-15011
빌	-15012
삼	-15013
성	-15014
입	-15015
자	-15016
제	-15017
좌	-15018
주	-15019
형	-15020
😍	-15021
😛	-15022
	-15023
ğ	-15024
Ş	-15025
ũ	-15026
ʻ	-15027
Ν	-15028
Σ	-15029
ч	-15030
ї	-15031
ј	-15032
ز	-15033
ट	-15034
ே	-15035
ொ	-15036
ோ	-15037
అ	-15038
ే	-15039
ນ	-15040
າ	-15041
မ	-15042
ု	-15043
ង	-15044
ដ	-15045
ឋ	-15046
ថ	-15047
ធ	-15048
ឹ	-15049
េ	-15050
ៃ	-15051
ử	-15052
‬	-15053
›	-15054
⇒	-15055
√	-15056
⋅	-15057
❤	-15058
➾	-15059
く	-15060
ず	-15061
た	-15062
や	-15063
ゅ	-15064
东	-15065
事	-15066
亭	-15067
今	-15068
会	-15069
但	-15070
克	-15071
六	-15072
刘	-15073
务	-15074
却	-15075
历	-15076
县	-15077
友	-15078
司	-15079
同	-15080
堯	-15081
多	-15082
央	-15083
存	-15084
客	-15085
对	-15086
島	-15087
川	-15088
廕	-15089
当	-15090
很	-15091
御	-15092
思	-15093
恭	-15094
想	-15095
放	-15096
昌	-15097
星	-15098
昭	-15099
曾	-15100
朱	-15101
楊	-15102
正	-15103
此	-15104
母	-15105
深	-15106
澳	-15107
牧	-15108
犬	-15109
狗	-15110
生	-15111
用	-15112
着	-15113
祖	-15114
福	-15115
程	-15116
空	-15117
策	-15118
管	-15119
米	-15120
网	-15121
羅	-15122
能	-15123
臺	-15124
舜	-15125
花	-15126
菊	-15127
萬	-15128
藝	-15129
藩	-15130
術	-15131
覺	-15132
解	-15133
語	-15134
護	-15135
调	-15136
車	-15137
陳	-15138
露	-15139
韓	-15140
颜	-15141
餅	-15142
館	-15143
首	-15144
경	-15145
군	-15146
권	-15147
남	-15148
술	-15149
예	-15150
이	-15151
	-15152
👎	-15153
	-15154
	-15155
	-15156
Ù	-15157
ð	-15158
÷	-15159
œ	-15160
ǐ	-15161
ǜ	-15162
ɛ	-15163
ɣ	-15164
ʿ	-15165
ˈ	-15166
̋	-15167
͘	-15168
Α	-15169
Δ	-15170
Θ	-15171
Π	-15172
Τ	-15173
Ч	-15174
ё	-15175
ҡ	-15176
ӯ	-15177
ב	-15178
ח	-15179
ע	-15180
פ	-15181
ץ	-15182
צ	-15183
أ	-15184
ث	-15185
خ	-15186
ك	-15187
ک	-15188
ं	-15189
ग	-15190
प	-15191
म	-15192
य	-15193
ी	-15194
அ	-15195
இ	-15196
உ	-15197
ழ	-15198
ఎ	-15199
ఖ	-15200
గ	-15201
చ	-15202
ట	-15203
త	-15204
న	-15205
ఫ	-15206
మ	-15207
హ	-15208
ై	-15209
ో	-15210
ງ	-15211
ບ	-15212
ສ	-15213
ຫ	-15214
ະ	-15215
စ	-15216
န	-15217
ိ	-15218
ေ	-15219
း	-15220
ြ	-15221
ᅠ	-15222
ភ	-15223
យ	-15224
វ	-15225
ួ	-15226
ែ	-15227
ោ	-15228
៊	-15229
័	-15230
ṇ	-15231
ấ	-15232
ằ	-15233
ỉ	-15234
ỗ	-15235
ở	-15236
ữ	-15237
‧	-15238
‰	-15239
‹	-15240
⇓	-15241
∅	-15242
♣	-15243
♫	-15244
❀	-15245
⬢	-15246
ご	-15247
の	-15248
べ	-15249
ほ	-15250
ま	-15251
み	-15252
ょ	-15253
り	-15254
を	-15255
ク	-15256
コ	-15257
ゼ	-15258
バ	-15259
レ	-15260
ー	-15261
丈	-15262
丰	-15263
丹	-15264
为	-15265
乎	-15266
乐	-15267
互	-15268
仁	-15269
件	-15270
体	-15271
何	-15272
余	-15273
倭	-15274
健	-15275
充	-15276
再	-15277
准	-15278
務	-15279
勱	-15280
匈	-15281
区	-15282
华	-15283
单	-15284
去	-15285
參	-15286
君	-15287
听	-15288
哵	-15289
哶	-15290
唐	-15291
啀	-15292
啊	-15293
啦	-15294
嗟	-15295
回	-15296
土	-15297
垓	-15298
堧	-15299
場	-15300
声	-15301
壹	-15302
外	-15303
女	-15304
奴	-15305
姷	-15306
嫟	-15307
宁	-15308
宇	-15309
宙	-15310
寧	-15311
导	-15312
尚	-15313
尧	-15314
尽	-15315
屋	-15316
岇	-15317
巴	-15318
常	-15319
应	-15320
府	-15321
廣	-15322
建	-15323
开	-15324
张	-15325
惠	-15326
惦	-15327
慶	-15328
拿	-15329
挫	-15330
措	-15331
改	-15332
救	-15333
料	-15334
景	-15335
曆	-15336
書	-15337
权	-15338
条	-15339
杭	-15340
柎	-15341
查	-15342
柳	-15343
森	-15344
橁	-15345
機	-15346
款	-15347
歆	-15348
歌	-15349
步	-15350
歲	-15351
殧	-15352
汉	-15353
江	-15354
泗	-15355
泠	-15356
泰	-15357
海	-15358
淡	-15359
添	-15360
湾	-15361
滉	-15362
滿	-15363
潉	-15364
澕	-15365
燁	-15366
牍	-15367
牡	-15368
理	-15369
琰	-15370
瓴	-15371
田	-15372
男	-15373
疫	-15374
皜	-15375
盈	-15376
盘	-15377
相	-15378
研	-15379
社	-15380
祝	-15381
神	-15382
禮	-15383
秬	-15384
究	-15385
立	-15386
節	-15387
給	-15388
統	-15389
編	-15390
總	-15391
绿	-15392
美	-15393
羽	-15394
耳	-15395
联	-15396
舒	-15397
菜	-15398
薬	-15399
蘇	-15400
蛇	-15401
蜀	-15402
袁	-15403
袅	-15404
製	-15405
要	-15406
読	-15407
诚	-15408
谢	-15409
谦	-15410
貞	-15411
貴	-15412
賓	-15413
贰	-15414
越	-15415
足	-15416
趾	-15417
这	-15418
迟	-15419
送	-15420
通	-15421
連	-15422
邑	-15423
那	-15424
鄭	-15425
醒	-15426
重	-15427
鈺	-15428
錢	-15429
鎮	-15430
間	-15431
関	-15432
队	-15433
阪	-15434
阮	-15435
防	-15436
阳	-15437
陛	-15438
陪	-15439
陵	-15440
陸	-15441
際	-15442
雮	-15443
雼	-15444
面	-15445
鞎	-15446
鞏	-15447
鞓	-15448
鞖	-15449
鞚	-15450
項	-15451
領	-15452
页	-15453
顺	-15454
饌	-15455
饮	-15456
香	-15457
高	-15458
魯	-15459
鮮	-15460
麊	-15461
갈	-15462
광	-15463
구	-15464
녕	-15465
된	-15466
리	-15467
반	-15468
배	-15469
복	-15470
빈	-15471
사	-15472
식	-15473
여	-15474
우	-15475
육	-15476
응	-15477
의	-15478
장	-15479
절	-15480
젓	-15481
정	-15482
종	-15483
찬	-15484
참	-15485
창	-15486
천	-15487
학	-15488
헌	-15489
화	-15490
	-15491
	-15492
	-15493
🍪	-15494
💓	-15495
💕	-15496
😃	-15497
😌	-15498
😢	-15499
😭	-15500
	-15501
	-15502
	-15503
	-15504
	-15505
	-15506
Æ	-15507
Ā	-15508
Ć	-15509
ď	-15510
ħ	-15511
ņ	-15512
ŋ	-15513
ő	-15514
ţ	-15515
ŭ	-15516
ų	-15517
ǚ	-15518
Ț	-15519
ț	-15520
ʒ	-15521
˃	-15522
̂	-15523
̃	-15524
̅	-15525
̆	-15526
͂	-15527
Γ	-15528
Μ	-15529
Ο	-15530
ψ	-15531
ώ	-15532
Ϝ	-15533
ю	-15534
Ѳ	-15535
Ѹ	-15536
ѹ	-15537
Ѿ	-15538
Қ	-15539
қ	-15540
ҷ	-15541
Һ	-15542
ә	-15543
ӣ	-15544
ד	-15545
ص	-15546
ڠ	-15547
ڤ	-15548
आ	-15549
च	-15550
ज	-15551
ञ	-15552
त	-15553
ल	-15554
श	-15555
ष	-15556
स	-15557
ि	-15558
ु	-15559
ू	-15560
ஈ	-15561
எ	-15562
ஏ	-15563
ெ	-15564
ං	-15565
ක	-15566
ල	-15567
ා	-15568
๠	-15569
ກ	-15570
ພ	-15571
ມ	-15572
ວ	-15573
ິ	-15574
ົ	-15575
ຼ	-15576
က	-15577
ည	-15578
ထ	-15579
ပ	-15580
သ	-15581
အ	-15582
ီ	-15583
ံ	-15584
ျ	-15585
ት	-15586
ኢ	-15587
ያ	-15588
ዮ	-15589
ጵ	-15590
គ	-15591
ឆ	-15592
ទ	-15593
អ	-15594
ឧ	-15595
់	-15596
៍	-15597
ṃ	-15598
Ṣ	-15599
ṵ	-15600
ẁ	-15601
ặ	-15602
ề	-15603
ỏ	-15604
Ở	-15605
ụ	-15606
ự	-15607
ἄ	-15608
Ἁ	-15609
Ἑ	-15610
ἶ	-15611
Ἰ	-15612
ὄ	-15613
ὶ	-15614
₤	-15615
↔	-15616
▼	-15617
☆	-15618
☧	-15619
♻	-15620
✊	-15621
✌	-15622
✖	-15623
✙	-15624
✳	-15625
❇	-15626
〔	-15627
〕	-15628
〣	-15629
い	-15630
が	-15631
こ	-15632
す	-15633
な	-15634
ね	-15635
へ	-15636
ジ	-15637
タ	-15638
パ	-15639
ャ	-15640
丁	-15641
与	-15642
世	-15643
两	-15644
丼	-15645
乗	-15646
九	-15647
书	-15648
乱	-15649
亂	-15650
亚	-15651
些	-15652
亞	-15653
亥	-15654
从	-15655
们	-15656
伊	-15657
优	-15658
佔	-15659
作	-15660
佳	-15661
使	-15662
供	-15663
俄	-15664
值	-15665
假	-15666
偿	-15667
儀	-15668
儿	-15669
元	-15670
先	-15671
免	-15672
兒	-15673
兜	-15674
入	-15675
內	-15676
兩	-15677
八	-15678
关	-15679
兴	-15680
其	-15681
具	-15682
典	-15683
冬	-15684
几	-15685
別	-15686
剔	-15687
勖	-15688
勗	-15689
勢	-15690
化	-15691
半	-15692
卦	-15693
印	-15694
卻	-15695
厅	-15696
反	-15697
发	-15698
取	-15699
口	-15700
古	-15701
另	-15702
只	-15703
叫	-15704
可	-15705
台	-15706
史	-15707
吉	-15708
后	-15709
向	-15710
吳	-15711
员	-15712
咸	-15713
哇	-15714
哦	-15715
喇	-15716
嗎	-15717
嗣	-15718
嘛	-15719
圓	-15720
圳	-15721
场	-15722
圾	-15723
垃	-15724
基	-15725
处	-15726
头	-15727
她	-15728
字	-15729
孙	-15730
孝	-15731
它	-15732
宗	-15733
宠	-15734
宵	-15735
容	-15736
寂	-15737
寞	-15738
寿	-15739
尊	-15740
尙	-15741
就	-15742
居	-15743
岳	-15744
峡	-15745
带	-15746
并	-15747
広	-15748
庆	-15749
序	-15750
弃	-15751
式	-15752
張	-15753
從	-15754
微	-15755
徳	-15756
忽	-15757
怕	-15758
急	-15759
性	-15760
恒	-15761
恳	-15762
愉	-15763
感	-15764
愿	-15765
懂	-15766
懋	-15767
懷	-15768
成	-15769
戡	-15770
抢	-15771
拳	-15772
挑	-15773
换	-15774
排	-15775
提	-15776
援	-15777
搞	-15778
搭	-15779
播	-15780
数	-15781
斬	-15782
旬	-15783
昇	-15784
晟	-15785
曹	-15786
最	-15787
朂	-15788
朋	-15789
期	-15790
未	-15791
机	-15792
村	-15793
杜	-15794
松	-15795
枌	-15796
枚	-15797
桓	-15798
桥	-15799
梦	-15800
楠	-15801
極	-15802
榆	-15803
橋	-15804
檢	-15805
次	-15806
歉	-15807
死	-15808
殺	-15809
氏	-15810
永	-15811
汁	-15812
沐	-15813
沙	-15814
没	-15815
河	-15816
法	-15817
泡	-15818
注	-15819
活	-15820
流	-15821
淦	-15822
港	-15823
渺	-15824
溥	-15825
溫	-15826
满	-15827
潢	-15828
灣	-15829
火	-15830
灰	-15831
烈	-15832
焢	-15833
然	-15834
煎	-15835
燥	-15836
爽	-15837
牙	-15838
特	-15839
玉	-15840
班	-15841
瑞	-15842
環	-15843
瓦	-15844
甮	-15845
町	-15846
画	-15847
界	-15848
略	-15849
當	-15850
盟	-15851
目	-15852
确	-15853
私	-15854
站	-15855
童	-15856
竹	-15857
笑	-15858
笔	-15859
等	-15860
答	-15861
筠	-15862
简	-15863
算	-15864
粥	-15865
系	-15866
紋	-15867
紙	-15868
繼	-15869
练	-15870
络	-15871
缘	-15872
羚	-15873
義	-15874
翅	-15875
育	-15876
胡	-15877
脽	-15878
腊	-15879
自	-15880
至	-15881
與	-15882
舞	-15883
般	-15884
良	-15885
节	-15886
苑	-15887
英	-15888
茫	-15889
莊	-15890
菓	-15891
蔡	-15892
蕭	-15893
薄	-15894
蘊	-15895
虞	-15896
虽	-15897
行	-15898
补	-15899
表	-15900
被	-15901
见	-15902
视	-15903
訓	-15904
誥	-15905
說	-15906
謙	-15907
训	-15908
评	-15909
话	-15910
说	-15911
责	-15912
贵	-15913
贸	-15914
赤	-15915
跆	-15916
跟	-15917
跳	-15918
蹈	-15919
身	-15920
躺	-15921
輔	-15922
辛	-15923
迎	-15924
进	-15925
進	-15926
運	-15927
道	-15928
邦	-15929
邮	-15930
郭	-15931
郷	-15932
酒	-15933
量	-15934
鍔	-15935
鎬	-15936
钧	-15937
银	-15938
長	-15939
问	-15940
闹	-15941
际	-15942
限	-15943
陽	-15944
隅	-15945
隐	-15946
难	-15947
雅	-15948
電	-15949
青	-15950
非	-15951
靠	-15952
鞍	-15953
音	-15954
頠	-15955
项	-15956
频	-15957
题	-15958
飽	-15959
驴	-15960
骊	-15961
鳥	-15962
黃	-15963
龍	-15964
龐	-15965
가	-15966
네	-15967
령	-15968
맹	-15969
미	-15970
별	-15971
병	-15972
상	-15973
선	-15974
연	-15975
영	-15976
오	-15977
인	-15978
조	-15979
치	-15980
케	-15981
콩	-15982
태	-15983
통	-15984
특	-15985
팀	-15986
표	-15987
홍	-15988
	-15989
	-15990
	-15991
	-15992
🐶	-15993
